<pad>	0
</s>	0
<unk>	0
▁	-2.85777
.	-2.98866
(	-3.0401
▁}	-3.33146
▁{	-3.34575
)	-3.47732
,	-3.73016
▁public	-3.8861
);	-4.01064
;	-4.02724
▁=	-4.06506
▁return	-4.13393
()	-4.31594
_	-4.47688
▁void	-4.65739
▁@	-4.77714
();	-4.83991
▁(	-4.84452
▁if	-4.99071
Override	-4.99107
▁this	-5.10372
▁String	-5.13779
▁null	-5.21794
▁new	-5.21816
s	-5.2287
String	-5.28779
<	-5.34995
▁int	-5.42044
>	-5.44419
("	-5.49787
▁"	-5.50374
get	-5.53746
▁+	-5.60646
▁boolean	-5.8289
▁get	-5.85603
▁private	-5.92047
▁==	-5.9505
▁throws	-5.95327
Exception	-5.98787
▁static	-6.0317
▁//	-6.09304
int	-6.0986
▁super	-6.11778
▁!=	-6.11874
▁m	-6.16101
().	-6.19523
());	-6.20545
▁final	-6.22623
");	-6.23219
▁set	-6.29646
",	-6.32311
[]	-6.37057
▁protected	-6.43254
▁for	-6.46249
Type	-6.4915
▁i	-6.50701
▁e	-6.52774
▁false	-6.53939
:	-6.57732
m	-6.61771
▁is	-6.63894
final	-6.64244
▁:	-6.6457
▁true	-6.64959
▁value	-6.65597
Id	-6.65674
this	-6.66424
Name	-6.68049
set	-6.68907
T	-6.70742
▁throw	-6.72363
▁else	-6.76934
List	-6.78829
Context	-6.7933
i	-6.80609
add	-6.8162
())	-6.85943
▁result	-6.87342
new	-6.90101
▁try	-6.91855
[	-6.92007
2	-6.93147
▁name	-6.94389
▁the	-6.9543
));	-6.96551
Object	-6.98089
d	-7.01375
▁List	-7.01484
name	-7.01635
▁catch	-7.01852
▁to	-7.02345
class	-7.028
1	-7.04817
▁0;	-7.0537
▁Object	-7.0651
▁context	-7.06579
length	-7.06632
▁IOException	-7.06938
(),	-7.08542
View	-7.10972
id	-7.13499
▁long	-7.15918
"	-7.1719
Data	-7.17831
e	-7.17838
-	-7.17886
Value	-7.18723
Map	-7.20133
/	-7.21689
append	-7.22071
State	-7.23189
Service	-7.24682
File	-7.25486
S	-7.27648
R	-7.29707
▁<	-7.29836
is	-7.30618
value	-7.31139
Class	-7.3217
▁a	-7.32926
equals	-7.33299
toString	-7.33715
▁create	-7.40753
size	-7.41025
▁(!	-7.41259
▁type	-7.42311
▁Exception	-7.43603
Key	-7.44892
Request	-7.45609
▁key	-7.45635
Manager	-7.45689
x	-7.48017
To	-7.48245
context	-7.49164
▁id	-7.49715
▁0	-7.50405
put	-7.50425
t	-7.51003
Info	-7.51654
▁on	-7.5213
Event	-7.53086
▁data	-7.53546
Path	-7.54132
n	-7.5475
key	-7.56247
E	-7.56498
▁in	-7.56795
")	-7.57167
▁Log	-7.57394
Message	-7.5744
Builder	-7.57664
▁-	-7.59256
TAG	-7.59291
ID	-7.59797
▁byte	-7.60975
▁add	-7.61857
ing	-7.62695
▁0)	-7.6398
c	-7.6421
Index	-7.65943
ed	-7.66391
boolean	-7.68703
▁message	-7.69415
null	-7.70016
Factory	-7.70207
▁test	-7.70811
0	-7.70848
▁c	-7.72632
Count	-7.72956
Listener	-7.73607
type	-7.74098
▁not	-7.74615
▁synchronized	-7.76375
▁instanceof	-7.76668
Response	-7.77043
";	-7.7723
Node	-7.77383
Item	-7.77759
Set	-7.7786
▁request	-7.78131
f	-7.78229
Config	-7.79538
=	-7.80365
getName	-7.81439
▁b	-7.81656
Handler	-7.81929
▁v	-7.82131
▁ArrayList	-7.82746
▁update	-7.83207
r	-7.84352
▁o	-7.85174
v	-7.85847
▁event	-7.86139
]	-7.86307
▁double	-7.866
create	-7.8667
▁case	-7.86866
▁start	-7.87232
▁x	-7.88232
▁p	-7.88363
▁File	-7.88623
uery	-7.88898
a	-7.89057
++)	-7.90491
▁index	-7.91414
Element	-7.92146
Time	-7.92839
Text	-7.92848
I	-7.92941
true	-7.93225
▁s	-7.9355
){	-7.93705
Result	-7.94359
▁S	-7.94472
Test	-7.94605
Entry	-7.94741
▁log	-7.95794
b	-7.9602
▁Integer	-7.96113
Utils	-7.96316
o	-7.96508
Size	-7.96991
▁assertEquals	-7.97402
▁float	-7.98039
▁file	-7.98365
▁t	-7.99285
long	-8.00285
▁System	-8.0074
For	-8.01287
▁Map	-8.01545
remove	-8.028
Configuration	-8.02881
▁run	-8.02908
▁values	-8.04262
▁response	-8.05049
In	-8.05282
on	-8.053
byte	-8.06065
Provider	-8.06612
(@	-8.07141
Uri	-8.07352
Model	-8.07646
data	-8.08058
Field	-8.08226
L	-8.08282
out	-8.08336
▁out	-8.08452
A	-8.08506
string	-8.08842
Status	-8.09641
▁y	-8.09741
▁be	-8.10699
▁view	-8.10879
▁sb	-8.10972
▁list	-8.1104
▁path	-8.12987
From	-8.13056
index	-8.13625
Client	-8.13683
▁check	-8.14515
▁!	-8.14732
▁method	-8.15616
er	-8.1568
];	-8.15716
PE	-8.16104
▁item	-8.16175
Filter	-8.1644
▁/	-8.17088
close	-8.17138
Integer	-8.17286
Property	-8.17762
message	-8.178
▁0,	-8.17902
Date	-8.17933
▁state	-8.1833
▁builder	-8.18838
Resource	-8.19013
p	-8.19129
Group	-8.20001
false	-8.20358
▁default	-8.20479
Action	-8.205
▁intent	-8.20792
write	-8.21355
▁T	-8.21572
▁msg	-8.21671
format	-8.22393
Mode	-8.23431
User	-8.23438
▁of	-8.23551
▁Intent	-8.24354
isEmpty	-8.24389
▁args	-8.24473
▁input	-8.24621
Connection	-8.24996
Error	-8.25007
D	-8.26048
Entity	-8.26052
Activity	-8.26464
▁count	-8.26636
▁r	-8.26861
Intent	-8.27852
With	-8.28105
="	-8.28978
Cache	-8.29008
>>	-8.29213
▁I	-8.29255
▁user	-8.29304
▁from	-8.30561
Url	-8.30717
Version	-8.31079
start	-8.31255
▁while	-8.31595
Impl	-8.31606
▁parent	-8.31913
y	-8.32622
KE	-8.33052
▁write	-8.33511
Method	-8.33956
▁has	-8.33987
▁1	-8.34
to	-8.34166
▁node	-8.35022
▁size	-8.35106
▁extends	-8.3523
Number	-8.35486
On	-8.35772
Properties	-8.35844
▁listener	-8.36086
▁service	-8.36722
1,	-8.36893
file	-8.36979
▁IllegalArgument	-8.37048
Command	-8.37503
▁toString	-8.37625
getValue	-8.37832
println	-8.38262
▁target	-8.38611
▁init	-8.38827
▁Class	-8.39511
▁uri	-8.39524
And	-8.39591
▁text	-8.39651
▁url	-8.39722
▁StringBuilder	-8.39905
info	-8.39994
B	-8.40292
▁obj	-8.40308
in	-8.40474
▁f	-8.40794
F	-8.41076
Helper	-8.41136
getString	-8.41276
▁l	-8.41277
▁Set	-8.41396
▁with	-8.42306
Enabled	-8.43081
V	-8.43163
▁max	-8.43177
▁read	-8.43572
▁position	-8.4389
Array	-8.43906
▁object	-8.4424
Long	-8.44314
▁source	-8.44656
Changed	-8.45019
▁arg	-8.45564
▁0);	-8.45707
error	-8.45723
URI	-8.45741
NAME	-8.46034
getInstance	-8.4665
▁config	-8.46848
Source	-8.46848
▁do	-8.47038
▁remove	-8.47154
>();	-8.47167
Location	-8.47171
▁entry	-8.4723
Stream	-8.47258
Position	-8.47285
able	-8.47472
Table	-8.47787
path	-8.47937
▁offset	-8.48188
C	-8.48209
▁n	-8.48369
Adapter	-8.48554
▁other	-8.4861
▁assert	-8.49083
Nonnull	-8.49352
Token	-8.50321
Code	-8.5039
Instance	-8.51051
Task	-8.51208
Server	-8.51212
InputStream	-8.51786
▁current	-8.51961
item	-8.52041
Options	-8.53411
LException	-8.54039
▁assertTrue	-8.54332
▁it	-8.54466
build	-8.54681
IOException	-8.54998
clear	-8.55064
▁map	-8.55177
result	-8.55296
▁java	-8.55715
▁>=	-8.56039
"));	-8.56062
getClass	-8.56468
P	-8.56802
request	-8.57135
text	-8.57907
▁call	-8.58476
Block	-8.58477
▁client	-8.58714
RuntimeException	-8.58857
▁1;	-8.59112
K	-8.59195
Util	-8.59694
By	-8.59912
values	-8.60199
Button	-8.6069
Page	-8.61031
contains	-8.61175
Metadata	-8.61716
▁status	-8.61873
▁end	-8.62312
▁TODO	-8.62501
event	-8.62515
Settings	-8.62983
Session	-8.63541
update	-8.63662
next	-8.63829
test	-8.63992
Column	-8.64062
▁expected	-8.64655
▁View	-8.64945
Tag	-8.65195
Content	-8.65246
URL	-8.65248
Collection	-8.65272
Header	-8.65527
Component	-8.6556
▁query	-8.65585
▁field	-8.65845
Reader	-8.66076
w	-8.66641
Address	-8.66719
System	-8.66994
Level	-8.67075
Start	-8.67781
Store	-8.6781
▁R	-8.67834
position	-8.68049
list	-8.68203
Base	-8.68652
Callback	-8.68786
▁buffer	-8.68828
Color	-8.69113
▁error	-8.69141
▁org	-8.69149
Update	-8.69177
▁attrs	-8.69356
▁logger	-8.69376
Container	-8.69591
hashCode	-8.69666
▁Long	-8.69695
user	-8.6974
▁player	-8.69762
▁we	-8.69883
▁break	-8.69948
▁+=	-8.70019
Values	-8.70296
Expression	-8.70379
read	-8.70669
▁handle	-8.71219
Of	-8.7199
erationException	-8.72207
(0,	-8.72223
Reference	-8.72342
UnsupportedOp	-8.72427
▁info	-8.72469
▁com	-8.72475
▁switch	-8.72629
ueue	-8.72715
NotNull	-8.73372
"))	-8.73396
Call	-8.73521
Dialog	-8.73919
▁{}	-8.74315
▁that	-8.74372
ob	-8.74376
▁ex	-8.74429
input	-8.74615
Log	-8.748
float	-8.74878
getMessage	-8.75361
Bean	-8.75665
Constants	-8.76189
Bundle	-8.76201
▁dialog	-8.76333
▁and	-8.76655
Image	-8.76698
M	-8.76767
Record	-8.76982
obj	-8.77149
▁buf	-8.77397
Attribute	-8.77454
Nullable	-8.7763
Parser	-8.7812
getId	-8.78203
Line	-8.78284
map	-8.78377
delete	-8.78854
▁output	-8.79097
url	-8.79105
▁time	-8.79516
msg	-8.80315
▁filter	-8.80413
log	-8.80459
node	-8.8067
All	-8.80961
▁show	-8.81293
Buffer	-8.81818
lang	-8.81877
▁->	-8.81907
▁session	-8.81936
▁length	-8.82009
state	-8.82029
▁res	-8.82041
Preference	-8.82071
double	-8.82156
▁onClick	-8.8217
▁element	-8.82376
google	-8.82596
▁find	-8.82706
▁Collection	-8.82739
▁pos	-8.82824
com	-8.82861
uri	-8.8302
Thread	-8.83469
Input	-8.83597
l	-8.83944
▁Boolean	-8.84128
Label	-8.84208
valueOf	-8.84431
▁close	-8.84701
has	-8.84707
()));	-8.84886
Offset	-8.85086
▁device	-8.85172
▁params	-8.85259
Descriptor	-8.85284
▁z	-8.85503
Fragment	-8.85523
▁Builder	-8.85528
son	-8.85778
view	-8.86059
Length	-8.86111
▁build	-8.86145
▁writer	-8.86798
Format	-8.87713
Player	-8.87739
Description	-8.87982
Bytes	-8.88086
Before	-8.88284
▁action	-8.88949
▁description	-8.89187
from	-8.89196
▁connection	-8.89319
No	-8.8941
OutputStream	-8.89902
j	-8.89909
▁model	-8.90156
(0);	-8.90237
▁load	-8.90308
▁cursor	-8.90371
▁parse	-8.90387
show	-8.90584
Controller	-8.90764
Dir	-8.90773
debug	-8.90842
▁1);	-8.90851
▁Date	-8.90873
Output	-8.91027
Parameters	-8.91069
▁entity	-8.91341
Repository	-8.91686
▁d	-8.9199
Account	-8.92078
query	-8.92113
▁next	-8.92318
▁last	-8.92537
max	-8.92602
▁delete	-8.92788
one	-8.932
▁clear	-8.93488
Parameter	-8.93726
▁Throwable	-8.93911
▁server	-8.93991
field	-8.9432
ACTION	-8.94739
generated	-8.94789
java	-8.94792
setText	-8.95029
▁handler	-8.95281
▁db	-8.95337
▁title	-8.95516
(){	-8.95719
▁can	-8.95805
Document	-8.95981
▁setUp	-8.96097
▁HashMap	-8.96364
▁format	-8.96691
Boolean	-8.96761
SuppressWarnings	-8.96823
▁instance	-8.96978
▁should	-8.9707
▁tag	-8.97157
▁process	-8.97394
stream	-8.97847
▁-1;	-8.97863
Directory	-8.97914
Iterator	-8.97985
▁ret	-8.98147
Port	-8.98301
Fields	-8.98784
▁getName	-8.99112
▁j	-8.99425
Tree	-8.99429
▁Message	-8.99471
android	-8.99536
STATE	-8.99583
▁as	-8.99593
config	-8.9997
▁activity	-9.00016
Writer	-9.00061
Target	-9.00403
▁my	-9.00507
Cursor	-9.00863
Row	-9.00876
parse	-9.00917
▁finally	-9.01196
Panel	-9.01239
parent	-9.0147
▁content	-9.01568
▁hashCode	-9.01734
▁val	-9.01764
h	-9.01835
Layout	-9.02065
▁cause	-9.02388
▁1)	-9.02404
<>();	-9.02418
▁actual	-9.0247
current	-9.0261
▁all	-9.02677
.");	-9.02758
io	-9.0279
▁Uri	-9.02847
{	-9.03308
source	-9.0341
▁IllegalState	-9.03605
▁height	-9.03638
g	-9.03777
Range	-9.03882
Folder	-9.03944
of	-9.04156
▁<=	-9.04273
other	-9.04306
End	-9.04372
Change	-9.04583
Application	-9.05045
N	-9.05102
getText	-9.0516
Transaction	-9.05349
▁table	-9.05475
▁len	-9.05514
()))	-9.05539
2,	-9.05864
substring	-9.05942
▁version	-9.06399
Names	-9.06493
▁char	-9.06632
▁stop	-9.06901
▁reset	-9.07292
▁address	-9.07332
Types	-9.07393
▁column	-9.07618
Link	-9.08016
▁h	-9.08037
pos	-9.08178
▁send	-9.0838
▁Auto	-9.08476
▁array	-9.08848
Not	-9.09131
target	-9.09164
▁Math	-9.09224
2)	-9.09413
entry	-9.09448
▁visit	-9.09586
▁Collections	-9.09622
Width	-9.09632
Default	-9.09751
▁min	-9.0976
▁callback	-9.09839
▁options	-9.09999
Option	-9.10173
args	-9.10254
Height	-9.10257
▁child	-9.10296
Point	-9.10498
H	-9.10638
Package	-9.10642
Profile	-9.11062
▁first	-9.11139
▁world	-9.11357
▁resource	-9.11357
Selection	-9.11511
Annotation	-9.11634
▁line	-9.11831
▁number	-9.11846
▁str	-9.12708
Icon	-9.12729
service	-9.12831
Template	-9.12866
Definition	-9.13067
▁code	-9.13081
After	-9.13102
▁string	-9.1311
Operation	-9.13177
NonNull	-9.13261
count	-9.13395
▁stub	-9.13765
Channel	-9.13908
Throwable	-9.13947
▁mContext	-9.14
At	-9.14033
k	-9.14045
▁execute	-9.14336
++;	-9.14466
()).	-9.1451
▁port	-9.14566
protobuf	-9.14634
G	-9.14666
▁use	-9.14695
title	-9.14795
Identifier	-9.15163
▁token	-9.15283
▁register	-9.153
Pattern	-9.15309
▁stack	-9.15329
getKey	-9.15432
▁stream	-9.15571
▁no	-9.15804
org	-9.15934
▁location	-9.16142
intent	-9.16222
▁properties	-9.16823
Or	-9.17076
Project	-9.17156
World	-9.17177
Loader	-9.17269
Process	-9.17333
object	-9.17517
Lock	-9.17557
offset	-9.17574
ItemStack	-9.17919
▁exception	-9.17931
▁bytes	-9.17986
▁mode	-9.18003
end	-9.18044
line	-9.18084
Get	-9.18264
content	-9.18329
CONTENT	-9.18448
▁row	-9.18595
▁width	-9.19052
Prefix	-9.19075
status	-9.19152
Pos	-9.1919
▁ctx	-9.19259
▁num	-9.19534
Double	-9.1959
getType	-9.196
Tab	-9.19643
player	-9.20035
Stack	-9.20247
stop	-9.20336
containsKey	-9.20344
").	-9.20388
Notification	-9.20489
▁command	-9.20633
▁page	-9.20833
builder	-9.20905
▁V	-9.21168
execute	-9.213
client	-9.21375
▁group	-9.21489
Registry	-9.21527
Policy	-9.21546
App	-9.21777
response	-9.21853
W	-9.21873
Module	-9.21939
▁setup	-9.22074
▁"";	-9.22295
min	-9.22354
check	-9.2252
Function	-9.22524
Items	-9.22546
▁container	-9.2262
▁project	-9.23147
▁old	-9.2337
device	-9.23418
buffer	-9.23691
BluetoothDevice	-9.23716
apache	-9.2381
es	-9.23821
▁Bundle	-9.23867
or	-9.23875
LOG	-9.2389
1.	-9.23956
Ref	-9.24108
Menu	-9.24447
Editor	-9.248
Invalid	-9.25073
▁base	-9.25187
▁reader	-9.25429
action	-9.26185
Failed	-9.26204
code	-9.2623
DEFAULT	-9.26356
al	-9.2636
ml	-9.26496
▁block	-9.26514
Timeout	-9.26538
Root	-9.26562
Schema	-9.26573
▁date	-9.26808
Mapping	-9.26809
▁param	-9.26919
Params	-9.26968
▁host	-9.27066
Wrapper	-9.27067
▁label	-9.27111
ContentResolver	-9.27128
Access	-9.27307
z	-9.2765
ly	-9.27994
xml	-9.28017
▁E	-9.28335
Form	-9.28356
Title	-9.28481
▁copy	-9.28587
iterator	-9.28639
▁menu	-9.28748
Int	-9.28807
▁an	-9.28843
▁hash	-9.28923
▁w	-9.29373
▁password	-9.29591
Search	-9.29953
▁level	-9.3
RE	-9.30091
▁InputStream	-9.30093
layout	-9.30363
Part	-9.30539
filter	-9.30585
Extension	-9.30588
▁property	-9.30624
group	-9.3074
▁finish	-9.3095
Device	-9.31079
▁make	-9.31115
instance	-9.31362
<>(	-9.31476
▁Double	-9.31622
Attributes	-9.31624
ML	-9.31787
VALUE	-9.31829
▁are	-9.31848
with	-9.31984
printStackTrace	-9.32039
O	-9.32216
Window	-9.32284
find	-9.32306
Control	-9.32392
Local	-9.32454
▁cache	-9.32455
(!	-9.32602
server	-9.32621
Proxy	-9.32648
▁onCreate	-9.33024
▁save	-9.33446
table	-9.33516
u	-9.3364
setVisibility	-9.33697
Permission	-9.34116
▁validate	-9.34174
▁root	-9.34187
MA	-9.34447
tag	-9.34473
expected	-9.34678
▁delegate	-9.34742
call	-9.35151
hasNext	-9.35153
▁dest	-9.3521
Converter	-9.35252
Internal	-9.35296
setEnabled	-9.35419
time	-9.35478
▁Optional	-9.35615
char	-9.3567
val	-9.35767
Calendar	-9.35804
▁short	-9.35858
Unit	-9.35895
Generator	-9.36072
▁when	-9.36088
element	-9.36112
2.	-9.362
SI	-9.36283
Files	-9.36534
Param	-9.36864
Read	-9.36907
run	-9.37022
getContext	-9.37183
Storage	-9.37268
As	-9.37501
▁2	-9.37549
Out	-9.3762
db	-9.37665
▁adapter	-9.38332
▁ItemStack	-9.384
▁account	-9.38426
split	-9.38487
default	-9.38498
Statement	-9.38614
method	-9.38751
Password	-9.38808
▁task	-9.39105
init	-9.39213
▁src	-9.39346
▁getValue	-9.39675
entity	-9.40011
Plugin	-9.40051
▁equals	-9.40211
▁parameters	-9.40401
▁fail	-9.40403
▁getType	-9.40806
getProperty	-9.40835
▁LOG	-9.40915
New	-9.41089
▁ContentValues	-9.41246
MODE	-9.41266
▁g	-9.41283
▁"+	-9.41291
Keys	-9.41346
listener	-9.41377
▁Settings	-9.41453
register	-9.41538
load	-9.41751
activity	-9.4177
Order	-9.41831
Str	-9.42027
Check	-9.4203
▁C	-9.42112
Style	-9.42258
Rule	-9.42267
▁configuration	-9.42282
getDefault	-9.4231
Frame	-9.4253
token	-9.42869
▁after	-9.43224
description	-9.43435
addAll	-9.43488
▁apply	-9.43526
▁clazz	-9.43572
▁must	-9.437
▁Abstract	-9.43904
▁by	-9.44013
Locale	-9.44225
buf	-9.44251
▁enabled	-9.44252
Ids	-9.44385
ED	-9.44468
▁open	-9.44532
Spec	-9.44652
▁change	-9.45206
▁par	-9.45259
Api	-9.45515
last	-9.45561
unchecked	-9.45618
▁Thread	-9.45819
Mapper	-9.45832
▁local	-9.45912
ic	-9.46009
Is	-9.46013
▁found	-9.46014
re	-9.46136
mContext	-9.46178
▁generate	-9.4618
model	-9.46252
0,	-9.46259
Child	-9.46375
Bitmap	-9.46809
Report	-9.46909
▁Default	-9.46939
array	-9.46997
▁will	-9.47117
SON	-9.47166
Setting	-9.47381
▁main	-9.47494
Sync	-9.47522
▁Immutable	-9.47664
TextView	-9.47767
Delete	-9.47979
DialogInterface	-9.47995
▁so	-9.48027
0)	-9.48109
▁Arrays	-9.48518
date	-9.48571
[0]	-9.48795
▁defaultValue	-9.48824
▁color	-9.49154
▁Assert	-9.49258
U	-9.49381
Certificate	-9.49426
DBG	-9.49636
SONObject	-9.49706
▁header	-9.49768
open	-9.49974
▁Test	-9.4999
▁have	-9.50037
Deprecated	-9.50042
▁image	-9.5008
Interface	-9.50178
▁editor	-9.50238
asList	-9.50248
ar	-9.50455
Handle	-9.50458
Processor	-9.50482
▁re	-9.50523
▁User	-9.50593
▁app	-9.51108
▁before	-9.51149
▁AttributeSet	-9.51194
Max	-9.51292
▁was	-9.51306
haredPreferences	-9.51382
▁json	-9.51447
Receiver	-9.51772
Instruction	-9.51871
Msg	-9.51892
UI	-9.51975
▁conf	-9.51983
Step	-9.5199
Vector	-9.52017
Columns	-9.52268
Sequence	-9.52359
▁record	-9.52958
release	-9.53011
▁plugin	-9.5306
Interval	-9.53069
▁"/	-9.53129
Strategy	-9.5313
▁tearDown	-9.53182
▁right	-9.53221
OK	-9.53356
as	-9.53479
SERVICE	-9.53551
Variable	-9.5363
Pool	-9.53648
version	-9.53846
Load	-9.53918
Meta	-9.54091
▁HashSet	-9.543
▁enable	-9.54348
column	-9.54391
ERROR	-9.54452
▁supported	-9.54459
Box	-9.54519
::	-9.54551
Host	-9.54618
Contact	-9.54647
Widget	-9.54683
Category	-9.54756
]);	-9.54809
port	-9.54819
onCreate	-9.54835
TE	-9.54898
▁or	-9.55233
▁-1)	-9.55321
▁k	-9.55369
trim	-9.55423
▁thread	-9.55442
replace	-9.55463
▁search	-9.55568
save	-9.55664
▁which	-9.5575
Match	-9.55786
Holder	-9.55903
ChangeListener	-9.5594
▁++	-9.55966
address	-9.56012
Feature	-9.56147
▁insert	-9.5619
ex	-9.56274
].	-9.56384
▁provider	-9.56396
The	-9.56517
▁sub	-9.56575
Database	-9.56692
reset	-9.56708
Num	-9.5671
▁metadata	-9.56748
▁Node	-9.56901
Body	-9.56908
Logger	-9.57012
Engine	-9.5709
menu	-9.57109
Counter	-9.57475
base	-9.57618
Details	-9.57817
print	-9.5785
▁un	-9.57939
GET	-9.58071
TRA	-9.58111
str	-9.58154
json	-9.58345
Open	-9.58497
world	-9.58513
▁ByteArray	-9.58645
▁initialize	-9.58777
Limit	-9.58802
▁fileName	-9.59195
startsWith	-9.59227
num	-9.59447
-1	-9.59479
Visitor	-9.5964
Write	-9.598
▁Vector	-9.59817
▁channel	-9.59842
▁body	-9.59855
▁Cursor	-9.60141
Validator	-9.6021
indexOf	-9.60322
Drawable	-9.60332
Resources	-9.60452
▁post	-9.6065
▁1,	-9.60816
bytes	-9.60937
▁job	-9.60957
▁savedInstance	-9.61022
host	-9.61028
▁prefix	-9.61056
Network	-9.6112
send	-9.61144
Display	-9.61185
Selected	-9.61373
Messages	-9.61411
Create	-9.61481
getInt	-9.61482
▁only	-9.61563
▁selection	-9.6157
▁items	-9.61606
Duration	-9.6173
my	-9.61744
writeInt	-9.61747
DEBUG	-9.61805
Animation	-9.61819
block	-9.61915
}	-9.61998
▁<<	-9.62007
▁HttpServlet	-9.62185
▁settings	-9.62434
Sub	-9.62527
CharSequence	-9.6254
▁left	-9.62649
short	-9.62662
▁results	-9.62723
Resolver	-9.62767
getBytes	-9.62833
2);	-9.62836
Add	-9.62871
Authentication	-9.63035
width	-9.63049
toLowerCase	-9.63335
▁at	-9.63409
getResources	-9.63433
urrentTimeMillis	-9.63451
cancel	-9.63464
IN	-9.63534
If	-9.63556
util	-9.6361
not	-9.6366
InstanceState	-9.63805
▁mHandler	-9.63877
number	-9.6409
Screen	-9.64133
▁progress	-9.64169
op	-9.64365
ava	-9.64455
session	-9.64465
Stats	-9.64673
stack	-9.64692
Only	-9.64748
▁URL	-9.64763
▁Context	-9.64822
▁Iterator	-9.6485
Preferences	-9.64875
▁CharSequence	-9.64928
▁flags	-9.65083
HttpServlet	-9.65243
cursor	-9.65285
▁display	-9.65505
label	-9.65815
Hash	-9.65871
Graph	-9.65895
▁nothing	-9.65994
no	-9.66108
▁ByteBuffer	-9.66252
▁component	-9.66263
exists	-9.66422
Char	-9.66442
getBoolean	-9.66511
▁factory	-9.66602
Empty	-9.66644
handle	-9.66724
apply	-9.66756
setUp	-9.66849
▁getActivity	-9.66858
▁locale	-9.66891
http	-9.66905
Visible	-9.6697
findViewById	-9.66975
it	-9.67205
Scope	-9.67235
Parent	-9.67283
compareTo	-9.67294
Renderer	-9.6743
▁Configuration	-9.67579
connection	-9.67584
▁cancel	-9.67736
output	-9.67745
root	-9.67869
app	-9.68058
▁timeout	-9.6835
▁StringBuffer	-9.68532
00	-9.6861
▁empty	-9.68682
Camera	-9.68843
arg	-9.68931
first	-9.68972
1)	-9.69066
location	-9.69396
Role	-9.69735
child	-9.69828
▁print	-9.70262
+	-9.70344
▁refresh	-9.70351
getCurrent	-9.70376
▁getService	-9.70381
▁convert	-9.70442
▁parser	-9.70456
▁getId	-9.70763
post	-9.70833
getActivity	-9.70859
▁store	-9.70872
Build	-9.71018
Region	-9.71035
Condition	-9.71167
▁compare	-9.71222
color	-9.71409
▁profile	-9.71515
▁headers	-9.71592
Video	-9.71672
VISIBLE	-9.7168
warn	-9.71718
Executor	-9.71851
▁icon	-9.7188
▁getDefault	-9.719
▁accept	-9.7202
Results	-9.72076
exception	-9.72101
Init	-9.72142
▁transport	-9.72424
parseInt	-9.72429
toArray	-9.7251
Packet	-9.72515
Edit	-9.72569
://	-9.72625
en	-9.72629
Track	-9.72688
DTO	-9.72736
▁A	-9.72778
keySet	-9.73014
Phone	-9.73024
▁Entity	-9.73094
"),	-9.73119
ING	-9.73133
▁match	-9.73191
Timestamp	-9.73222
q	-9.73236
Cell	-9.73254
TO	-9.73451
ear	-9.73827
DB	-9.73991
lock	-9.73996
▁P	-9.74055
)));	-9.74289
▁duration	-9.74311
OptionsMenu	-9.74451
▁selected	-9.74568
12	-9.74575
row	-9.74758
Un	-9.74768
Events	-9.74844
NO	-9.74848
[1]	-9.74874
do	-9.74903
os	-9.74942
UUID	-9.74999
Space	-9.75065
(1);	-9.75099
Enum	-9.75104
▁fields	-9.75153
Flag	-9.75183
▁Response	-9.752
equalsIgnoreCase	-9.75348
▁document	-9.75673
Script	-9.75736
!");	-9.75754
resource	-9.75864
▁filename	-9.76155
10	-9.7616
MenuItem	-9.76188
▁Simple	-9.76435
▁className	-9.76474
("/	-9.76846
▁Block	-9.76893
▁parameter	-9.76901
page	-9.77002
Dao	-9.77232
project	-9.77693
Current	-9.77719
putExtra	-9.77782
Available	-9.77823
Summary	-9.77838
▁total	-9.77909
▁notify	-9.77973
Entries	-9.78221
at	-9.7832
ClassName	-9.78537
visit	-9.78777
Args	-9.78797
▁dir	-9.7887
Groups	-9.78922
▁ASN	-9.78979
History	-9.79014
Environment	-9.79027
▁tab	-9.79189
ip	-9.79198
Login	-9.79382
src	-9.7945
Progress	-9.79499
▁assertNotNull	-9.79868
▁put	-9.79963
Failure	-9.80052
all	-9.80101
▁ref	-9.80159
param	-9.80282
Section	-9.80283
Auth	-9.80285
▁username	-9.80356
Custom	-9.80392
FileName	-9.80497
command	-9.80524
Word	-9.80576
ER	-9.80729
▁lock	-9.80735
header	-9.809
Async	-9.80957
▁Toast	-9.81007
▁mService	-9.81328
return	-9.81346
▁verify	-9.8149
▁meta	-9.81568
Elements	-9.81573
[0];	-9.81639
enabled	-9.8164
ON	-9.81704
charAt	-9.81733
Return	-9.81739
Side	-9.8176
Tile	-9.81824
▁cannot	-9.81905
Card	-9.82036
DATA	-9.82101
Stop	-9.82206
▁order	-9.82218
Listeners	-9.82311
Batch	-9.8248
edit	-9.8266
▁doc	-9.82774
properties	-9.82796
un	-9.82822
local	-9.8287
0_	-9.83023
Animator	-9.83023
Active	-9.83069
▁sender	-9.83124
Email	-9.83154
clone	-9.83336
Domain	-9.83368
▁button	-9.83451
▁manager	-9.8351
UTF	-9.83565
▁mAdapter	-9.83598
getPath	-9.83712
sonProperty	-9.83726
newInstance	-9.83889
entrySet	-9.83925
Null	-9.83933
▁req	-9.84079
res	-9.84083
mode	-9.84107
(1,	-9.84359
▁getInstance	-9.84381
LENGTH	-9.84402
Post	-9.84455
Interrupted	-9.84484
Abstract	-9.84558
Val	-9.84591
Binding	-9.8469
Comment	-9.84761
Runnable	-9.84777
▁prime	-9.84828
▁fragment	-9.84896
Byte	-9.85016
▁original	-9.85091
▁one	-9.85192
readInt	-9.85211
Execution	-9.85248
VERSION	-9.8526
▁URI	-9.8532
▁getCurrent	-9.85474
left	-9.8556
▁Path	-9.85776
Protos	-9.85836
Consumer	-9.85888
len	-9.85937
First	-9.86087
Serializer	-9.8612
▁Objects	-9.86167
Next	-9.86168
Endpoint	-9.86199
▁called	-9.86283
settings	-9.86288
Language	-9.86289
Selector	-9.86323
Layer	-9.86334
▁phone	-9.86351
UEST	-9.86499
▁DEFAULT	-9.86548
Received	-9.86635
▁bundle	-9.86847
▁keys	-9.86918
Success	-9.87171
Texture	-9.87183
▁queue	-9.87187
LayoutParams	-9.87218
▁proxy	-9.87457
process	-9.87562
▁need	-9.87646
▁Interrupted	-9.87672
▁Bitmap	-9.87714
CODE	-9.87727
RESULT	-9.87866
savedInstance	-9.88056
▁ignore	-9.88117
EVENT	-9.88165
Re	-9.88226
Scale	-9.88243
Float	-9.88259
Support	-9.88269
Global	-9.88473
▁inflater	-9.88594
api	-9.88628
▁preference	-9.88775
Information	-9.88957
▁already	-9.89065
Media	-9.89099
Required	-9.89176
Registration	-9.89178
NOT	-9.89225
Dto	-9.89274
▁android	-9.89422
ch	-9.89478
▁here	-9.89503
accept	-9.89536
channel	-9.89616
▁LOGGER	-9.89847
Simple	-9.89865
ctx	-9.89867
Matrix	-9.89884
▁amount	-9.9022
LargeTest	-9.90228
matcher	-9.90414
▁tree	-9.90608
MESSAGE	-9.90704
▁B	-9.90724
Subscription	-9.90766
▁off	-9.9082
inflate	-9.90903
:"	-9.90975
select	-9.91038
▁This	-9.91042
getTime	-9.91289
copy	-9.91308
▁Account	-9.91312
password	-9.91409
use	-9.91419
▁select	-9.91449
▁animation	-9.9163
dir	-9.91816
▁range	-9.91864
▁valid	-9.91889
▁q	-9.91948
▁{}",	-9.91968
icon	-9.92069
Obj	-9.92222
Marker	-9.92251
err	-9.92326
thrift	-9.92365
▁col	-9.92419
▁Item	-9.92487
Pointer	-9.92491
Member	-9.92514
▁files	-9.92598
insert	-9.92627
Dictionary	-9.92631
cache	-9.92656
height	-9.92674
Edge	-9.92707
▁attribute	-9.92708
▁mCurrent	-9.9275
RemoteException	-9.92789
▁timestamp	-9.92938
Formatter	-9.92939
▁failed	-9.92971
One	-9.93039
Mock	-9.93211
▁but	-9.93327
PATH	-9.93342
▁directory	-9.9335
▁expression	-9.93382
getItem	-9.93386
MSG	-9.9346
Monitor	-9.93605
Can	-9.93709
FILE	-9.93724
getSystemService	-9.93768
search	-9.93981
Delegate	-9.94162
Native	-9.94166
options	-9.94175
▁invalidate	-9.94252
Remote	-9.94262
Up	-9.94294
▁Calendar	-9.94328
Last	-9.94361
▁layout	-9.9456
NON	-9.94665
▁mIs	-9.94729
+"	-9.94752
▁bitmap	-9.94764
Run	-9.94808
super	-9.94904
Send	-9.94927
old	-9.94988
▁userId	-9.95092
SharedPreference	-9.95254
▁now	-9.95286
▁attributes	-9.95318
▁configure	-9.95328
▁op	-9.95333
profile	-9.95381
Valid	-9.95422
prefix	-9.95491
▁clone	-9.95648
flush	-9.95661
▁raw	-9.95855
Delta	-9.95878
Matcher	-9.96108
▁pref	-9.96151
▁report	-9.96177
▁pattern	-9.96332
Flags	-9.96463
ClassLoader	-9.96583
Def	-9.96624
drawable	-9.96735
property	-9.96739
getData	-9.9681
▁uuid	-9.97031
setValue	-9.97087
Single	-9.97127
1);	-9.97206
image	-9.97228
▁flag	-9.97269
account	-9.97356
▁dexFile	-9.97401
Operator	-9.97415
▁mListener	-9.97459
▁tmp	-9.9752
▁newValue	-9.97595
me	-9.97656
▁ensure	-9.977
Cannot	-9.97733
▁Method	-9.97795
Cluster	-9.97848
application	-9.97858
Classes	-9.97885
▁temp	-9.97942
[]{	-9.98016
Literal	-9.98056
USER	-9.98162
ByteBuffer	-9.98171
Pair	-9.98208
Home	-9.98295
FLAG	-9.98318
▁Annotation	-9.98409
▁permission	-9.98434
TIME	-9.98576
protocol	-9.98675
Parcel	-9.98741
task	-9.98876
▁assertFalse	-9.9894
▁remote	-9.9905
ref	-9.99071
params	-9.99111
Chunk	-9.99136
API	-9.99254
▁email	-9.99389
Direction	-9.99399
sub	-9.99416
▁NullPointer	-9.99477
clazz	-9.99491
Import	-9.99631
Kind	-9.99658
Complete	-9.99685
link	-9.99793
▁top	-9.99794
Sensor	-9.99946
enable	-9.99947
empty	-9.99986
▁up	-9.99995
▁Base	-10.0021
GONE	-10.0031
▁visitor	-10.0039
Expr	-10.0046
Remove	-10.0078
Permissions	-10.0085
Void	-10.0087
BluetoothProfile	-10.0089
▁render	-10.0092
▁does	-10.0094
Close	-10.0096
Memory	-10.0102
ToString	-10.0112
TextUtils	-10.0119
internal	-10.0119
▁random	-10.012
Min	-10.012
▁application	-10.0132
ListAdapter	-10.0138
Volume	-10.0147
Driver	-10.0149
level	-10.0163
conf	-10.0166
Select	-10.0173
▁Element	-10.0179
SET	-10.0189
Preview	-10.0193
INSTANCE	-10.0197
Db	-10.0198
section	-10.0206
Short	-10.0209
Audio	-10.0217
▁bind	-10.0217
Op	-10.0221
Case	-10.0223
▁unit	-10.0226
▁-1	-10.0239
Attachment	-10.0244
▁setName	-10.0248
Distance	-10.0254
▁owner	-10.0262
11	-10.0265
Non	-10.0267
▁children	-10.0272
Rate	-10.0281
Argument	-10.0288
Tags	-10.0292
DAO	-10.0299
▁var	-10.0306
tab	-10.0312
Period	-10.0332
Paint	-10.0345
▁props	-10.0356
for	-10.0374
DateTime	-10.0374
Arrays	-10.0388
Area	-10.0409
Slot	-10.041
onResume	-10.0421
ArrayList	-10.0425
plugin	-10.043
▁desc	-10.0443
Protocol	-10.0446
▁active	-10.045
▁database	-10.0466
Amount	-10.0475
_1	-10.0477
▁implemented	-10.0481
Any	-10.0486
▁defStyle	-10.049
▁annotation	-10.049
container	-10.0499
Alias	-10.0519
MP	-10.0523
writer	-10.0531
Detail	-10.0536
▁bean	-10.0537
▁scale	-10.0541
++]	-10.0543
!	-10.0553
▁module	-10.0559
Encoding	-10.056
Multi	-10.0563
▁schema	-10.0568
Children	-10.057
Bar	-10.0584
Usage	-10.0585
▁payload	-10.0585
Material	-10.0596
NONE	-10.0597
▁Properties	-10.0605
Photo	-10.0614
▁required	-10.0618
▁Resource	-10.063
Register	-10.0647
Runner	-10.0649
getAttribute	-10.0663
==	-10.0665
▁prefs	-10.0688
ion	-10.0689
▁os	-10.069
Timer	-10.0694
reader	-10.0696
getCount	-10.0698
▁ViewGroup	-10.0708
EMPT	-10.0711
▁startActivity	-10.0724
Doc	-10.073
order	-10.0734
▁reason	-10.0736
ation	-10.0736
getParent	-10.0738
Left	-10.0739
Headers	-10.074
Speed	-10.0745
▁Void	-10.0747
▁reference	-10.0748
handler	-10.0751
Background	-10.0752
1;	-10.0754
▁release	-10.0761
▁getString	-10.0763
▁Invalid	-10.0784
Sample	-10.0792
commit	-10.0792
Comparator	-10.0794
▁link	-10.0806
▁limit	-10.0811
▁mapper	-10.0812
▁ch	-10.0815
Principal	-10.0817
MetaData	-10.0818
PROPERT	-10.082
Bounds	-10.082
Lookup	-10.0824
▁operation	-10.0832
hash	-10.0834
▁collection	-10.0854
This	-10.0856
Inject	-10.087
Admin	-10.0885
▁getAll	-10.089
▁KeyEvent	-10.0894
▁transaction	-10.0895
▁Preconditions	-10.0896
▁resolve	-10.0899
tearDown	-10.0904
dialog	-10.0922
Math	-10.0923
▁outState	-10.0925
▁form	-10.0936
provider	-10.0938
invoke	-10.0954
Arg	-10.0957
Copy	-10.0967
matches	-10.0973
Socket	-10.0974
sort	-10.0977
trace	-10.098
Span	-10.0997
▁conn	-10.1007
Agent	-10.1014
record	-10.1016
intValue	-10.1022
▁loader	-10.1034
▁elements	-10.1036
rs	-10.1041
Save	-10.1041
Metrics	-10.1046
ms	-10.1056
Security	-10.1057
dismiss	-10.1062
▁template	-10.1079
▁converter	-10.1081
Ui	-10.1096
▁encode	-10.11
▁category	-10.1107
notify	-10.1108
▁Document	-10.1121
sleep	-10.1125
▁getContext	-10.1157
Transformer	-10.1161
20	-10.1184
putInt	-10.119
▁resources	-10.1194
body	-10.1203
▁arguments	-10.1204
Visibility	-10.1217
▁constructor	-10.1221
▁2;	-10.1224
Insert	-10.1253
Encoder	-10.1261
▁"/"	-10.127
Millis	-10.1279
▁any	-10.1286
▁iterator	-10.1292
getSimpleName	-10.1298
Expected	-10.1307
▁Get	-10.1309
Validation	-10.1324
Route	-10.1337
▁repository	-10.1341
▁yet	-10.1344
Delay	-10.1347
▁sql	-10.1353
@	-10.1366
▁getItem	-10.1385
Indicator	-10.1387
▁word	-10.1387
External	-10.1389
▁connect	-10.1391
getApplication	-10.1393
▁BigInteger	-10.1422
Inventory	-10.1423
▁changed	-10.1427
Nodes	-10.1434
Tracker	-10.1447
Declaration	-10.1457
▁textView	-10.1466
Connector	-10.1472
▁cb	-10.1476
Loading	-10.1483
endsWith	-10.1491
▁getClass	-10.1492
▁encoding	-10.1493
▁getMax	-10.1494
▁Locale	-10.1494
▁custom	-10.1495
▁success	-10.1501
username	-10.1514
Segment	-10.1523
connect	-10.1527
Services	-10.153
Stub	-10.153
▁The	-10.1556
Predicate	-10.1565
▁mock	-10.1569
TEST	-10.1573
Character	-10.1573
▁track	-10.1574
MediaPlayer	-10.1577
▁available	-10.1577
▁invoke	-10.1578
button	-10.1583
Click	-10.1588
▁iter	-10.1592
OUT	-10.1592
onPause	-10.1593
▁been	-10.1602
READ	-10.1602
▁rs	-10.1605
ALL	-10.1612
StringUtils	-10.1622
▁notification	-10.1624
Credentials	-10.1633
ActionEvent	-10.1637
render	-10.1639
STRING	-10.164
▁"");	-10.1642
LiteDatabase	-10.1644
configuration	-10.1644
Instances	-10.1652
unregister	-10.1652
DataSource	-10.1654
job	-10.1655
Identity	-10.1656
▁listeners	-10.1665
Tuple	-10.1667
▁part	-10.1671
NotFound	-10.1671
Grid	-10.1673
NUMBER	-10.1674
▁If	-10.1676
▁jj	-10.1682
▁StringUtils	-10.1687
EventHandler	-10.1704
▁force	-10.1724
▁setValue	-10.1724
Arguments	-10.1725
Annotations	-10.1729
▁canvas	-10.1735
Conf	-10.1737
xff	-10.1745
[0]);	-10.1754
▁created	-10.1764
▁tw	-10.1765
ItemSelected	-10.1774
Unknown	-10.1776
EncodedValue	-10.1779
ACCOUNT	-10.178
▁packageName	-10.1797
Var	-10.1801
oin	-10.1804
▁skip	-10.1804
▁types	-10.1807
getAction	-10.1812
Transport	-10.1813
sql	-10.1834
▁SA	-10.1845
▁visible	-10.1845
sendMessage	-10.1853
Started	-10.1855
▁prepare	-10.1867
selected	-10.1871
Diff	-10.1876
Missing	-10.1883
▁don	-10.1884
ServletException	-10.1898
Has	-10.1906
putString	-10.191
Lines	-10.191
/"	-10.1916
NLS	-10.1933
▁hide	-10.1937
▁entries	-10.1945
off	-10.1952
▁onResume	-10.1956
Feed	-10.1957
▁draw	-10.1963
Objects	-10.1968
Repo	-10.1973
Term	-10.2004
bind	-10.2008
STATUS	-10.2015
▁subject	-10.2016
arraycopy	-10.2021
Day	-10.2028
▁testGet	-10.2031
Observer	-10.2033
attr	-10.2034
that	-10.2034
Payload	-10.2035
bar	-10.2038
Rect	-10.2038
▁Command	-10.2038
join	-10.204
Unable	-10.2042
IP	-10.205
PRO	-10.2054
▁role	-10.2059
stateErrors	-10.2063
▁getDescription	-10.2067
Recipe	-10.2068
Signature	-10.2075
Auto	-10.2083
▁Float	-10.2083
Tool	-10.2083
doc	-10.2084
▁auth	-10.2087
▁dst	-10.2089
▁columns	-10.2101
Snapshot	-10.2105
display	-10.2111
CLIENT	-10.2115
▁cmd	-10.2119
obtainMessage	-10.2126
wallet	-10.2136
Future	-10.2141
▁socket	-10.2155
▁TimeUnit	-10.2156
=0;	-10.2156
Supported	-10.2157
Download	-10.2159
Operations	-10.2182
callback	-10.2193
0);	-10.2196
▁tile	-10.2202
▁Text	-10.2206
Producer	-10.2207
Partition	-10.2216
▁delta	-10.2216
▁instruction	-10.223
Transition	-10.2236
▁mouse	-10.2244
Raw	-10.2248
▁mp	-10.2257
Allowed	-10.2269
▁include	-10.2274
▁fieldName	-10.2289
Score	-10.2299
Paths	-10.23
▁cell	-10.2302
Calls	-10.2308
22	-10.2309
Connect	-10.231
if	-10.2317
Game	-10.2332
▁OutputStream	-10.2334
Refresh	-10.2336
▁We	-10.2341
▁engine	-10.2365
Split	-10.237
▁region	-10.2389
logger	-10.24
Orientation	-10.24
▁used	-10.2402
▁destination	-10.2412
▁1.0	-10.2413
▁isValid	-10.2418
tree	-10.2421
ac	-10.2429
Vertex	-10.2434
replaceAll	-10.2435
ECT	-10.2439
[][]	-10.2446
track	-10.2467
Use	-10.2477
▁Mock	-10.2483
Binary	-10.2485
te	-10.2487
Primitive	-10.2488
▁scope	-10.2493
Algorithm	-10.2493
▁previous	-10.2497
Stage	-10.2502
Per	-10.2505
Person	-10.2514
▁rawContactId	-10.2518
metadata	-10.2526
▁alias	-10.2538
Attr	-10.254
▁TextView	-10.2544
sonObject	-10.2544
getAbsolutePath	-10.2547
▁O	-10.2547
"+	-10.2552
▁direction	-10.2554
store	-10.2555
▁tags	-10.2556
▁Connection	-10.2558
Optional	-10.2558
Loaded	-10.2561
Contacts	-10.2578
Center	-10.2584
▁assertThat	-10.2585
Export	-10.2586
▁step	-10.2596
Transform	-10.26
▁Time	-10.2604
▁decode	-10.2605
IS	-10.2608
Trigger	-10.2622
Down	-10.2623
▁Do	-10.2628
Axis	-10.263
▁mParcel	-10.2648
sb	-10.2649
Stat	-10.2652
Switch	-10.2659
▁M	-10.2661
actual	-10.2661
Contents	-10.2665
ByteString	-10.2677
Methods	-10.2685
Exists	-10.2685
Right	-10.2701
▁Logger	-10.2708
▁statement	-10.2708
Commit	-10.2713
Namespace	-10.2718
▁G	-10.2718
!=	-10.2719
▁initial	-10.2721
getLong	-10.2723
DA	-10.2724
Http	-10.2727
▁access	-10.2727
▁non	-10.2728
Added	-10.2728
▁names	-10.2735
Assert	-10.2736
Pending	-10.2745
▁contains	-10.2746
Artifact	-10.2747
compare	-10.2756
make	-10.2765
▁"]"	-10.277
Reason	-10.277
▁Iterable	-10.2779
Scan	-10.278
Errors	-10.2782
writeString	-10.2783
START	-10.2787
Top	-10.279
report	-10.2794
▁allow	-10.2794
▁opcode	-10.2801
filename	-10.2811
Equals	-10.2821
Updated	-10.2833
GL	-10.2833
Uuid	-10.284
MS	-10.2847
Locked	-10.2855
▁network	-10.2862
Pref	-10.2869
Constructor	-10.287
OR	-10.2878
oom	-10.288
▁extract	-10.2883
Trace	-10.2903
Structure	-10.2905
can	-10.2909
Bucket	-10.2913
Actions	-10.2931
TABLE	-10.2932
▁Color	-10.2944
uuid	-10.2944
▁extension	-10.2945
▁point	-10.2948
▁screen	-10.2948
STREAM	-10.2949
Pane	-10.295
▁what	-10.296
▁Player	-10.2961
Chain	-10.2968
setName	-10.2971
Priority	-10.2978
Binder	-10.298
meta	-10.2981
phone	-10.2984
▁compute	-10.2988
▁fs	-10.2995
Modifier	-10.3002
Shape	-10.3012
▁marker	-10.3019
Owner	-10.3026
Thumbnail	-10.3026
▁cleanup	-10.3031
Processing	-10.3063
▁continue	-10.3066
VIEW	-10.3078
Render	-10.3078
Running	-10.3079
""	-10.3081
▁sync	-10.3088
LIST	-10.3094
Pre	-10.3103
▁(!(	-10.3105
pref	-10.3115
▁H	-10.3126
CALL	-10.3148
right	-10.315
▁side	-10.3155
Created	-10.316
Shortcut	-10.316
Desc	-10.3161
▁u	-10.3165
▁resolver	-10.317
TIMEOUT	-10.3172
Scroll	-10.3178
Branch	-10.3178
what	-10.3186
main	-10.3188
▁flush	-10.3188
▁identifier	-10.3192
▁setId	-10.3203
Mod	-10.3205
CLASS	-10.3214
OB	-10.322
Sort	-10.3223
▁language	-10.3224
wrap	-10.3227
IO	-10.3229
raw	-10.3232
▁frame	-10.3239
▁unregister	-10.3246
resolve	-10.3248
Dynamic	-10.3263
▁pool	-10.3272
ST	-10.3274
▁comment	-10.3274
▁disable	-10.3276
foo	-10.3276
▁folder	-10.3278
UPDATE	-10.3281
PARAM	-10.3282
▁pre	-10.3283
shutdown	-10.3284
Tasks	-10.329
Font	-10.3291
getState	-10.3294
locale	-10.33
DELETE	-10.3303
Html	-10.3303
Done	-10.3312
generate	-10.332
preference	-10.3335
component	-10.334
MediaRecorder	-10.3343
▁Location	-10.3344
▁second	-10.3346
then	-10.3349
convert	-10.3349
▁def	-10.3358
▁Point	-10.3373
▁fill	-10.3377
▁onDestroy	-10.3378
uestion	-10.3399
▁Project	-10.3399
et	-10.3402
Codec	-10.3406
ok	-10.3409
▁getKey	-10.341
setProperty	-10.3421
▁My	-10.3422
▁onPause	-10.3429
Could	-10.343
FIELD	-10.3432
Effect	-10.3432
Sound	-10.3446
Theme	-10.3464
IllegalArgument	-10.3464
▁dump	-10.3471
(0).	-10.3479
Full	-10.3483
▁internal	-10.3486
Main	-10.349
encode	-10.3501
▁mState	-10.3501
Setup	-10.3502
PREFI	-10.3505
ordinal	-10.3525
xFF	-10.3539
Focus	-10.3544
▁""	-10.355
Res	-10.3553
StateChanged	-10.3562
col	-10.3564
namespace	-10.3577
▁fetch	-10.3578
SONException	-10.3578
Pin	-10.358
▁domain	-10.3584
className	-10.3586
Secure	-10.3588
packageName	-10.3589
refresh	-10.3593
mService	-10.3597
[2]	-10.3601
▁destroy	-10.3606
▁2)	-10.361
▁getData	-10.3615
Flow	-10.3625
onDestroy	-10.3626
INFO	-10.3635
Collector	-10.3636
MIN	-10.3642
Core	-10.3654
validate	-10.3657
▁function	-10.3663
liferay	-10.3665
Power	-10.3672
Metric	-10.3673
fileName	-10.3684
▁Create	-10.3687
▁slot	-10.369
...");	-10.3696
INT	-10.3708
the	-10.3719
▁contentType	-10.3721
▁where	-10.3723
Basic	-10.374
Picker	-10.3757
dexFile	-10.3762
Decoder	-10.3764
AR	-10.3765
timeout	-10.3775
email	-10.3791
Move	-10.3794
html	-10.381
▁Notification	-10.3811
Separator	-10.3811
▁script	-10.3819
Records	-10.383
▁video	-10.3834
▁transform	-10.3838
bitField	-10.3839
Product	-10.385
▁0.0	-10.3852
▁edit	-10.3858
Gateway	-10.3858
Upload	-10.3862
Composite	-10.3864
Ip	-10.3866
domain	-10.3867
top	-10.387
▁con	-10.3872
▁Call	-10.3874
▁just	-10.3875
cause	-10.3877
form	-10.3881
▁system	-10.3885
▁option	-10.3885
▁onChanged	-10.3887
▁UUID	-10.3887
▁No	-10.3889
pattern	-10.3893
collect	-10.3905
▁download	-10.3907
▁sequence	-10.391
Descriptors	-10.3911
▁DateTime	-10.3911
prepare	-10.3913
OF	-10.3914
push	-10.3914
▁driver	-10.3918
portal	-10.3922
▁Expression	-10.3923
success	-10.3927
parameters	-10.3928
change	-10.3932
Library	-10.3935
Web	-10.3942
▁protocol	-10.3952
parser	-10.3955
▁exit	-10.396
SHORT	-10.3961
Archive	-10.3964
▁priority	-10.3966
▁matches	-10.3973
Users	-10.3974
bean	-10.3979
▁getCount	-10.3983
CHANGED	-10.3983
▁may	-10.3988
▁controller	-10.3993
ITEM	-10.3994
▁perform	-10.3995
cell	-10.3996
Invocation	-10.3998
▁sort	-10.4005
OFF	-10.4008
Work	-10.4011
st	-10.4016
▁window	-10.4017
widget	-10.4028
▁D	-10.4029
▁executor	-10.403
▁kind	-10.4036
Blocks	-10.4038
Points	-10.4039
auth	-10.4046
Immutable	-10.405
decode	-10.4052
getWidth	-10.4052
getHeight	-10.4067
Rows	-10.4074
total	-10.4086
Removed	-10.409
▁mMediaPlayer	-10.409
fieldName	-10.4106
▁style	-10.4118
finish	-10.4125
▁replace	-10.4126
getResource	-10.4128
getAll	-10.4133
IT	-10.4141
var	-10.4144
delegate	-10.4148
owner	-10.4155
Cookie	-10.4158
Requested	-10.4165
isEnabled	-10.4168
▁findViewById	-10.4169
AUTO	-10.417
▁fire	-10.418
▁getS	-10.4194
duration	-10.4196
Capacity	-10.4197
MediaName	-10.4198
▁auto	-10.4201
SmallTest	-10.4201
▁columnIndex	-10.4211
ById	-10.4212
▁rule	-10.4217
▁matcher	-10.4233
AsString	-10.4233
alias	-10.4237
active	-10.4252
▁actionPerformed	-10.4266
transport	-10.4266
Hint	-10.427
forEach	-10.4273
getBlock	-10.4273
Generic	-10.428
▁Random	-10.4287
fragment	-10.4288
UN	-10.4288
▁storage	-10.4289
Filename	-10.4291
▁loc	-10.4291
▁calculate	-10.4292
▁mActivity	-10.4309
],	-10.4331
sFor	-10.4338
by	-10.4347
LONG	-10.4347
ContentValues	-10.4347
EventListener	-10.4351
▁mimeType	-10.4355
Completed	-10.4369
setVisible	-10.4372
sTo	-10.4378
▁split	-10.4381
Keyboard	-10.4381
net	-10.4382
an	-10.4388
▁Property	-10.4392
Overlay	-10.4394
Debug	-10.4397
Rules	-10.4397
ActionMode	-10.4401
video	-10.4405
▁getLast	-10.4405
Clicked	-10.4411
▁begin	-10.4413
Deleted	-10.4421
Sql	-10.4422
▁partition	-10.4434
FragmentManager	-10.4442
us	-10.4443
dispose	-10.4449
expression	-10.4454
▁dispatch	-10.4458
▁bar	-10.4464
Site	-10.4464
▁compareTo	-10.4477
Threshold	-10.4478
original	-10.4479
Viewer	-10.4481
xtensionRegistry	-10.4491
Tests	-10.4502
Cmd	-10.4504
ENABLED	-10.4504
Iterable	-10.4518
▁back	-10.4527
emptyList	-10.4535
▁errors	-10.4543
▁xml	-10.4546
▁argument	-10.455
▁Field	-10.4553
Plan	-10.4554
Bits	-10.4554
▁12	-10.4556
box	-10.456
ConnectionState	-10.4565
▁native	-10.4566
Reset	-10.457
▁Activity	-10.4575
attribute	-10.4583
Total	-10.4583
Sender	-10.4584
LE	-10.4594
▁Certificate	-10.4598
Deployment	-10.4604
Writable	-10.4612
getParameter	-10.4613
▁Event	-10.4617
▁Image	-10.4619
Finished	-10.4628
FORMAT	-10.4629
Alarm	-10.4631
Used	-10.4641
▁Utils	-10.4645
INDE	-10.465
Symbol	-10.4651
DATE	-10.4661
▁descriptor	-10.4664
▁alpha	-10.4668
desc	-10.4669
limit	-10.4672
ASN	-10.4679
▁env	-10.4685
▁suite	-10.4695
Common	-10.4701
sender	-10.4702
▁messages	-10.4713
SHOW	-10.4716
COUNT	-10.473
initialize	-10.4737
US	-10.4744
▁BigDecimal	-10.4747
fields	-10.4761
guard	-10.4765
▁complete	-10.4769
▁there	-10.4775
getConfiguration	-10.4781
Sms	-10.4794
word	-10.4795
ro	-10.4803
Random	-10.4817
Disconnected	-10.4825
DISPLA	-10.4826
Creator	-10.4835
mp	-10.484
module	-10.4842
idx	-10.4845
scale	-10.4848
de	-10.4853
COLUMN	-10.4853
instructionStart	-10.4857
Len	-10.4859
getService	-10.486
Alpha	-10.4869
items	-10.487
Cached	-10.487
▁delay	-10.4876
Broadcast	-10.4885
up	-10.4886
isChecked	-10.4887
Share	-10.4896
range	-10.4897
Implementation	-10.4897
▁http	-10.4902
toByteArray	-10.4904
MotionEvent	-10.4908
Retry	-10.491
assertEquals	-10.4912
NS	-10.4916
▁-1);	-10.4918
CheckBox	-10.4921
▁selectionArgs	-10.4928
▁support	-10.4935
Cancel	-10.4935
▁prop	-10.4937
tile	-10.4938
WebView	-10.4949
▁mCursor	-10.4968
▁camera	-10.4977
getTag	-10.4978
ACTIVIT	-10.4978
▁>>>	-10.4984
▁__	-10.4987
mLock	-10.4998
ero	-10.5005
▁propertyName	-10.5007
▁calendar	-10.503
Gui	-10.5031
userId	-10.504
document	-10.5042
POST	-10.5044
▁extra	-10.5047
▁lookup	-10.5054
▁resultCode	-10.5055
permission	-10.506
▁merge	-10.5062
▁cluster	-10.5063
should	-10.5064
▁de	-10.5065
FilePath	-10.5065
▁done	-10.5076
Runtime	-10.5076
PREF	-10.5084
De	-10.5088
Extra	-10.5096
▁projection	-10.5101
queue	-10.5101
▁Server	-10.5114
Touch	-10.5114
Capture	-10.5115
▁expr	-10.5116
Note	-10.5117
assert	-10.5131
ImageView	-10.5136
[]>	-10.5144
Alert	-10.5149
▁because	-10.5159
TileEntity	-10.5163
DataType	-10.5165
nextInt	-10.5178
▁condition	-10.518
Ready	-10.518
encoding	-10.5181
progress	-10.5184
21	-10.5185
LayoutInflater	-10.5187
▁commit	-10.5188
▁tableName	-10.5194
Destination	-10.5196
PackageManager	-10.5197
Suggestions	-10.5197
Browser	-10.5198
isValid	-10.5216
▁holder	-10.5223
Private	-10.5224
LA	-10.5231
annotation	-10.5235
▁groupId	-10.5237
keys	-10.524
Statistics	-10.5245
▁2);	-10.5246
BluetoothAdapter	-10.525
▁":	-10.5251
ResourceLocation	-10.5259
Constant	-10.526
▁LinkedList	-10.5264
Drop	-10.527
▁shutdown	-10.5271
▁namespace	-10.5274
▁RemoteException	-10.5274
Changes	-10.5277
▁throwable	-10.5286
setAttribute	-10.5287
makeText	-10.529
▁api	-10.5291
Backup	-10.5296
Variables	-10.5297
Finder	-10.53
END	-10.5302
▁allowed	-10.531
Book	-10.5312
▁st	-10.5321
▁packet	-10.5324
▁monitor	-10.5343
category	-10.5351
Workflow	-10.5352
Safe	-10.5365
0;	-10.5365
ByteArray	-10.5367
▁Application	-10.5372
▁evt	-10.5378
▁rhs	-10.5378
am	-10.5379
▁push	-10.538
▁counter	-10.5383
Off	-10.5386
OnClickListener	-10.5387
separator	-10.5394
▁cr	-10.5396
Fail	-10.5406
MAP	-10.5419
Back	-10.5421
HTTP	-10.5424
▁cur	-10.5426
▁>>	-10.543
▁feature	-10.5431
Canvas	-10.5435
Self	-10.5442
▁tr	-10.5446
random	-10.5448
ParseException	-10.5449
la	-10.5454
▁answer	-10.5455
ListView	-10.5459
req	-10.5467
Inner	-10.5468
▁inputStream	-10.5468
Completion	-10.5471
Platform	-10.548
le	-10.5483
▁getView	-10.5486
▁Preference	-10.5495
HashMap	-10.55
▁expect	-10.5507
getSession	-10.5514
▁signature	-10.5527
fs	-10.5528
abs	-10.5528
ive	-10.5529
match	-10.5538
cmd	-10.5543
timestamp	-10.5543
ui	-10.5548
BUTTON	-10.5549
Filters	-10.5552
Pass	-10.5556
Master	-10.5559
Border	-10.5559
APPLICATION	-10.5559
▁doesn	-10.5572
Multiple	-10.5573
▁getUser	-10.5576
setTitle	-10.5579
▁idx	-10.5581
OS	-10.5585
part	-10.5585
▁chunk	-10.559
▁rows	-10.5594
▁seekBar	-10.5602
cr	-10.5625
▁nodes	-10.5626
▁mark	-10.5627
01	-10.5632
media	-10.5643
Show	-10.5646
Subject	-10.5653
Frequency	-10.5658
Static	-10.5675
▁setting	-10.5681
▁serialize	-10.5685
▁cl	-10.5691
mState	-10.5692
el	-10.5693
▁texture	-10.5694
getUser	-10.5694
MediumTest	-10.5696
▁scan	-10.5696
▁web	-10.57
▁charset	-10.5708
ds	-10.571
and	-10.5723
isDirectory	-10.5733
Mail	-10.5741
tr	-10.5742
▁widget	-10.575
▁then	-10.5754
Sign	-10.5755
schema	-10.5757
Transfer	-10.576
};	-10.5762
▁displayName	-10.5776
▁restore	-10.5778
▁graph	-10.578
Schedule	-10.5783
Bound	-10.5788
▁contact	-10.5788
ByName	-10.5789
getItemId	-10.5794
▁-=	-10.58
ES	-10.5809
Ex	-10.581
BeforeClass	-10.5811
▁since	-10.5812
Dependency	-10.5819
▁convertView	-10.582
Suffix	-10.5825
elements	-10.5826
sync	-10.5828
Presenter	-10.583
▁onReceive	-10.5833
Warning	-10.5834
▁package	-10.5835
▁supports	-10.5845
currentThread	-10.5848
children	-10.5848
▁requestCode	-10.5849
Launch	-10.5852
storage	-10.5856
DialogFragment	-10.5858
▁Pattern	-10.5858
Topic	-10.5859
KeyEvent	-10.5862
lastIndexOf	-10.5864
My	-10.5866
SimpleDateFormat	-10.5871
▁waitFor	-10.5879
Peer	-10.5882
Capabilities	-10.5883
▁checkNotNull	-10.5883
▁BufferedReader	-10.5886
▁newBuilder	-10.5888
▁media	-10.5889
▁debug	-10.5892
▁":"	-10.5895
Named	-10.59
Revision	-10.591
MediaType	-10.591
▁pw	-10.5912
template	-10.5925
▁span	-10.5928
mCurrent	-10.5929
Mask	-10.5932
putBoolean	-10.5933
▁day	-10.5935
FileOutputStream	-10.5937
Constraint	-10.5938
Team	-10.5944
▁MA	-10.5954
When	-10.596
getClassLoader	-10.5961
Bit	-10.5961
Execute	-10.5963
▁onStart	-10.5963
2;	-10.5972
draw	-10.5977
SERVER	-10.598
▁"[	-10.598
▁K	-10.5981
▁Phone	-10.5981
requireNonNull	-10.5997
▁full	-10.5998
States	-10.5999
lookup	-10.6004
▁bucket	-10.6005
Scanner	-10.6006
Seconds	-10.6006
addr	-10.601
Program	-10.601
UNKNOWN	-10.6016
▁getVersion	-10.6019
Play	-10.6027
payload	-10.6027
▁Token	-10.6029
▁spec	-10.603
NULL	-10.6031
▁World	-10.6034
▁enter	-10.6037
Factor	-10.6041
Rotation	-10.6049
home	-10.605
▁"."	-10.6051
Angle	-10.6053
system	-10.6055
now	-10.6057
folder	-10.6059
Clock	-10.6064
headers	-10.6065
AdapterView	-10.6069
▁getParent	-10.6069
getConfig	-10.6072
▁site	-10.6074
Pipeline	-10.6076
web	-10.609
adapter	-10.6094
custom	-10.6099
Looper	-10.6099
▁same	-10.6102
▁1000	-10.6103
role	-10.6104
getAddress	-10.611
▁assertNull	-10.6113
▁getTitle	-10.6115
▁getTarget	-10.6117
▁events	-10.6119
Spinner	-10.6122
▁methods	-10.6138
▁wait	-10.6143
▁Client	-10.6143
parameter	-10.6145
▁updated	-10.6147
VM	-10.6151
Origin	-10.6152
Machine	-10.6154
Hook	-10.6156
unit	-10.6159
▁mResolver	-10.6163
▁CodecTest	-10.6166
▁Basic	-10.6167
▁than	-10.6169
▁lines	-10.6175
Drag	-10.6188
reference	-10.6189
manager	-10.6203
1",	-10.6205
Found	-10.6211
collection	-10.6215
Logging	-10.6216
fail	-10.622
▁startTime	-10.6223
▁mLast	-10.6224
ComponentName	-10.6225
▁TEST	-10.6226
so	-10.6227
Standard	-10.6229
▁numberOf	-10.6237
▁Drawable	-10.6258
mIs	-10.6268
bitcoinj	-10.6273
Without	-10.6274
identifier	-10.6277
UP	-10.6277
▁more	-10.6281
proxy	-10.6283
Compat	-10.6286
▁BlockPos	-10.6288
Popup	-10.6289
NEW	-10.6296
Release	-10.6298
AST	-10.6301
▁pm	-10.6309
sample	-10.631
▁Attribute	-10.6328
▁Repository	-10.633
ONE	-10.6334
Answer	-10.6335
▁move	-10.634
OFFSET	-10.6344
▁work	-10.6345
▁sum	-10.6349
▁Page	-10.6355
▁Security	-10.6359
▁volume	-10.6365
▁1]	-10.6367
getStatus	-10.6371
MethodUnderTest	-10.6378
OP	-10.6379
card	-10.638
Locator	-10.6382
ResId	-10.6383
DisplayName	-10.6385
▁DOMException	-10.6391
▁using	-10.641
resources	-10.6413
Install	-10.643
▁prev	-10.644
▁Http	-10.644
Begin	-10.6441
ResultSet	-10.6448
{"	-10.6453
▁Component	-10.6453
▁onSave	-10.6456
toUpperCase	-10.6457
▁import	-10.647
notNull	-10.6471
Projection	-10.6471
pause	-10.6479
destroy	-10.6483
Dimension	-10.6484
▁background	-10.6491
▁MenuItem	-10.6492
▁App	-10.6494
Wait	-10.6497
Super	-10.6499
NC	-10.65
Contract	-10.6503
frame	-10.6509
NBT	-10.651
▁mView	-10.6511
▁closed	-10.6511
Buf	-10.6512
▁pin	-10.6514
Relation	-10.6516
▁diff	-10.6516
setChecked	-10.6525
point	-10.6537
NumberFormat	-10.6538
PLA	-10.6543
Authorization	-10.6544
▁started	-10.6546
option	-10.6546
KeyStore	-10.6548
style	-10.6553
▁scroll	-10.6557
Ext	-10.6559
il	-10.6568
▁ClassLoader	-10.6574
Components	-10.6578
});	-10.6587
sp	-10.6591
ContentType	-10.6594
Surface	-10.6594
TelephonyManager	-10.6599
▁handleMessage	-10.6604
ActionBar	-10.6606
▁FileInputStream	-10.6613
▁trace	-10.6616
▁Internal	-10.6617
▁suffix	-10.6617
Co	-10.662
factory	-10.6622
ResourceId	-10.6625
AUDIO	-10.6628
TITLE	-10.6628
▁feed	-10.6628
▁filePath	-10.6628
checkNotNull	-10.6629
DIALOG	-10.6639
▁room	-10.664
▁encoded	-10.6645
SONArray	-10.6647
▁Messaging	-10.665
▁keyCode	-10.6659
▁distance	-10.6662
▁consumer	-10.6663
ViewHolder	-10.6667
▁trigger	-10.6676
ViewGroup	-10.668
SC	-10.6693
▁sendMessage	-10.6693
par	-10.6697
▁parts	-10.6699
tmp	-10.67
Voicemail	-10.67
begin	-10.6707
getMethod	-10.6707
Present	-10.6711
Ratio	-10.672
Commands	-10.6722
Views	-10.6723
▁mapping	-10.6731
Concept	-10.6734
▁getNext	-10.6743
mAdapter	-10.6745
Dispatcher	-10.6749
Chart	-10.6749
UserId	-10.6756
Bridge	-10.6758
Free	-10.676
mock	-10.6772
▁objects	-10.6774
editor	-10.6775
Checked	-10.6779
▁login	-10.6781
click	-10.6783
cast	-10.6784
bundle	-10.6787
▁Model	-10.6795
("");	-10.6799
getObject	-10.6804
0));	-10.6811
Me	-10.6815
exit	-10.6817
TestCase	-10.6817
PK	-10.6818
▁pass	-10.682
▁Transaction	-10.682
Example	-10.6823
Old	-10.6827
▁Number	-10.683
Recording	-10.6832
Gen	-10.6832
APP	-10.6841
getMax	-10.6847
Extended	-10.6847
remote	-10.685
▁setTitle	-10.6852
Parts	-10.6853
getPlayer	-10.6855
SideOnly	-10.6863
▁ev	-10.6872
thread	-10.6873
Initial	-10.6874
ME	-10.6874
getEntity	-10.6881
NotSupported	-10.6882
amount	-10.6883
Servlet	-10.6886
HttpClient	-10.6889
▁policy	-10.6891
▁IBinder	-10.6892
directory	-10.6893
▁timer	-10.6894
Pause	-10.6899
jj	-10.6901
▁ignored	-10.6901
Connected	-10.6902
++	-10.6904
core	-10.6908
PsiBuilder	-10.691
▁ids	-10.6912
Bluetooth	-10.6915
Ms	-10.6916
ll	-10.6918
Checker	-10.6924
▁registry	-10.6931
keyCode	-10.6934
▁onError	-10.6945
SE	-10.6946
▁operator	-10.6947
def	-10.6952
▁getText	-10.6953
▁Character	-10.696
include	-10.6966
Other	-10.6967
network	-10.6972
cc	-10.6977
▁Media	-10.6984
contact	-10.699
sBy	-10.6995
compile	-10.7006
Dataset	-10.7009
▁artifact	-10.701
▁control	-10.7011
▁ds	-10.7012
▁mod	-10.7017
PhoneNumber	-10.7022
Clear	-10.7029
▁getParameter	-10.7031
Accessibility	-10.704
▁exist	-10.7041
▁cal	-10.7041
Features	-10.7042
Digest	-10.7043
Padding	-10.7044
script	-10.7046
getSource	-10.7052
▁clean	-10.7055
Light	-10.7057
▁Update	-10.7061
flag	-10.7065
getLength	-10.7066
Exchange	-10.7067
Worker	-10.7067
Ad	-10.7068
▁Util	-10.707
Col	-10.7072
Closed	-10.7073
onSave	-10.7076
▁getMessage	-10.7083
Interceptor	-10.7086
▁paint	-10.7086
Blob	-10.7094
▁Contact	-10.7096
▁bit	-10.7101
DataSet	-10.7104
▁interval	-10.7111
▁F	-10.7112
AS	-10.7116
attributes	-10.7117
▁reload	-10.7122
step	-10.7123
▁parseFrom	-10.7127
cs	-10.7131
Called	-10.7138
Tables	-10.7138
Uid	-10.7139
▁year	-10.7139
▁member	-10.7144
EditText	-10.7146
Idle	-10.7146
Entities	-10.7149
kernel	-10.7165
Disabled	-10.7174
▁invalid	-10.7179
▁sp	-10.7187
slot	-10.719
▁sure	-10.7191
im	-10.7199
getFile	-10.7202
▁bottom	-10.7206
▁origin	-10.721
VideoEditor	-10.7211
▁product	-10.7215
AudioManager	-10.7225
PORT	-10.7229
Suggestion	-10.7233
▁writeTo	-10.7233
Issue	-10.7235
Sent	-10.7241
Scheduler	-10.7245
Asset	-10.7246
▁SavedState	-10.7264
flags	-10.7265
▁onProgress	-10.7265
Chat	-10.7266
▁W	-10.7279
omg	-10.7288
Links	-10.7291
▁photo	-10.7298
▁Session	-10.7299
age	-10.7307
▁wrapped	-10.7307
▁predicate	-10.7312
dbc	-10.7315
ClickListener	-10.732
Collections	-10.732
Month	-10.7324
bitmap	-10.7324
[1];	-10.733
newArrayList	-10.7339
UID	-10.7345
IllegalAccess	-10.7346
▁userName	-10.7347
TRUE	-10.735
▁batch	-10.7352
▁annotations	-10.7362
Tokens	-10.7362
Scheme	-10.7364
cl	-10.7366
Recipient	-10.737
isAssignableFrom	-10.737
Words	-10.7375
▁accountId	-10.7377
IndexOutOfBounds	-10.7379
▁helper	-10.7387
Utf	-10.7389
region	-10.739
Interaction	-10.739
subject	-10.7393
Distribution	-10.7394
▁card	-10.7398
▁columnName	-10.74
▁Byte	-10.7403
RequestMapping	-10.7409
▁cookie	-10.7414
▁ImmutableList	-10.7421
Prop	-10.7425
Updater	-10.7427
Creation	-10.7433
Specification	-10.7442
Include	-10.7447
wave	-10.7451
Supplier	-10.7455
(0)	-10.7457
▁L	-10.7458
AL	-10.7459
Secret	-10.746
Payment	-10.7461
Dirty	-10.7467
database	-10.7468
engine	-10.747
▁onStop	-10.7471
disable	-10.7473
pop	-10.7484
Using	-10.7496
▁sample	-10.7499
Console	-10.7501
▁isEnabled	-10.7503
▁arr	-10.7503
▁mData	-10.7508
PrivateKey	-10.7511
SyntaxException	-10.7512
▁parcel	-10.7513
▁running	-10.7522
▁month	-10.7524
descriptor	-10.7526
▁removed	-10.7529
forName	-10.7533
▁attr	-10.7535
▁Packet	-10.7535
setData	-10.7537
BigDecimal	-10.754
▁doTest	-10.7543
INVALID	-10.7554
ContentObserver	-10.7554
TOKEN	-10.7554
▁-1,	-10.7555
▁launch	-10.7565
Push	-10.7567
uote	-10.7567
Bind	-10.7568
Extractor	-10.7568
▁variable	-10.7573
[0].	-10.7577
▁inner	-10.7586
bluetooth	-10.7588
Depth	-10.7595
▁Matcher	-10.7602
Cause	-10.7603
▁addr	-10.7605
Forward	-10.7609
axis	-10.7611
▁repo	-10.7614
▁some	-10.7618
back	-10.7621
▁existing	-10.7623
[0],	-10.7625
ur	-10.7633
▁Entry	-10.7633
apps	-10.7635
function	-10.7635
▁section	-10.7638
GROUP	-10.7641
bit	-10.7642
Radius	-10.7643
":	-10.7648
admin	-10.7654
▁Local	-10.7663
▁Status	-10.7669
},	-10.7669
Clause	-10.7669
▁resp	-10.7672
Singleton	-10.7675
▁ac	-10.7683
mark	-10.7684
▁itemStack	-10.7696
Charset	-10.7702
uality	-10.7702
loc	-10.7719
isDebugEnabled	-10.7729
▁chain	-10.7731
AfterClass	-10.7733
getLogger	-10.7737
▁broadcast	-10.7741
Launcher	-10.7743
Unique	-10.7744
Parse	-10.7744
▁API	-10.7749
required	-10.775
▁nbt	-10.7751
PackageName	-10.7755
▁effect	-10.7756
▁mValues	-10.7761
Facade	-10.7763
names	-10.7766
▁classes	-10.7771
--;	-10.7777
▁Stream	-10.778
est	-10.7785
peek	-10.7792
▁thrown	-10.7796
pre	-10.7797
Delayed	-10.7797
▁extras	-10.78
mergeFrom	-10.7814
Enable	-10.7818
Pages	-10.7821
mListener	-10.7823
Workspace	-10.7825
onActivityResult	-10.7827
▁newInstance	-10.7839
temp	-10.7839
setup	-10.785
spec	-10.7852
Modified	-10.7852
▁memory	-10.7857
Accept	-10.7863
Conversion	-10.7867
getDescription	-10.787
▁uid	-10.7871
DEVICE	-10.7872
▁Contacts	-10.7874
▁Check	-10.788
results	-10.7887
▁Network	-10.7887
▁["	-10.7895
▁cert	-10.7908
readU	-10.7908
▁contactId	-10.791
Connections	-10.7911
repository	-10.7913
>");	-10.7913
SELECT	-10.7914
▁Table	-10.7919
getServer	-10.7921
setId	-10.7922
▁added	-10.7927
screen	-10.7934
ie	-10.7938
CONTACT	-10.7939
FileSystem	-10.7941
seq	-10.7943
reparedStatement	-10.7944
▁Address	-10.7949
auto	-10.7954
Chars	-10.7956
▁note	-10.7957
ATTRIBUTE	-10.7958
ant	-10.7965
Country	-10.7967
▁specified	-10.7969
▁Result	-10.7971
▁ip	-10.7973
▁environment	-10.7973
▁Material	-10.7987
con	-10.799
getWorld	-10.799
▁single	-10.7991
▁Function	-10.7992
▁getStatus	-10.7993
failed	-10.7997
Registered	-10.7997
▁bitField	-10.7999
day	-10.8
mId	-10.8004
disconnect	-10.8015
Bad	-10.8015
getProject	-10.8018
Need	-10.8018
summary	-10.802
Manifest	-10.8024
Tick	-10.8028
▁literal	-10.8031
Identification	-10.8034
Resolution	-10.8035
Env	-10.8038
▁cached	-10.8039
0000000	-10.804
▁UI	-10.8047
▁disconnect	-10.8054
▁future	-10.8055
▁checked	-10.8061
Serializable	-10.8063
selection	-10.8064
▁upload	-10.8067
Draw	-10.8069
Playback	-10.8077
▁getField	-10.8082
files	-10.8083
▁metrics	-10.8087
PHONE	-10.8088
Coordinate	-10.8097
▁accountType	-10.8098
StateErrors	-10.8101
Saved	-10.8103
Place	-10.8103
PI	-10.8108
Reply	-10.8112
ent	-10.8117
Problem	-10.812
CREATE	-10.8129
Assignment	-10.813
▁setDefault	-10.8135
Hidden	-10.8136
transform	-10.8137
Ignore	-10.8137
Put	-10.8137
NOTIFICATION	-10.8139
CONFIG	-10.8141
hide	-10.8142
Fetch	-10.8145
Cloud	-10.8151
▁mCamera	-10.8155
priority	-10.8157
ts	-10.8161
ret	-10.8164
▁stats	-10.8167
,"	-10.8171
Extensions	-10.8175
setMessage	-10.8176
language	-10.8176
readString	-10.8193
reason	-10.8204
Reporter	-10.821
Head	-10.8214
▁topic	-10.8223
ul	-10.8225
▁getFile	-10.823
SA	-10.8232
mActivity	-10.8233
LOCATION	-10.8236
Threads	-10.8238
▁join	-10.8241
▁HttpRequest	-10.8242
Exit	-10.8243
▁onComplete	-10.8248
▁tuple	-10.8249
book	-10.8258
▁em	-10.8258
▁failure	-10.8268
▁click	-10.8271
putAll	-10.8275
Do	-10.8276
StringBuilder	-10.8278
▁box	-10.8281
▁comp	-10.8282
access	-10.8288
Notifier	-10.8296
countDown	-10.8301
▁tx	-10.8301
▁dispose	-10.8305
▁methodName	-10.8308
Matching	-10.8311
▁getResources	-10.8313
instruction	-10.8321
Presentation	-10.8324
▁getSource	-10.8325
alpha	-10.8325
▁export	-10.8329
PreferenceScreen	-10.8333
Idx	-10.8335
Seq	-10.8336
▁strings	-10.8339
Fluid	-10.8342
Phase	-10.8346
Navigation	-10.8351
conn	-10.8352
Weight	-10.8353
Keyword	-10.8354
getLocation	-10.8355
▁exists	-10.8359
02	-10.8361
IC	-10.8362
▁inventory	-10.8363
Images	-10.8365
PA	-10.8371
comment	-10.8371
▁execution	-10.8377
ChangedListener	-10.8386
▁tokens	-10.8388
▁contents	-10.8394
Broker	-10.8395
▁setResult	-10.8395
Sink	-10.8395
▁Generic	-10.84
Cert	-10.8402
ev	-10.8404
Over	-10.8423
Username	-10.8423
Restriction	-10.8428
▁ClassNotFound	-10.8431
▁10	-10.8443
Defaults	-10.8444
ies	-10.845
Finish	-10.845
▁endpoint	-10.8451
▁our	-10.8453
Public	-10.8453
▁dismiss	-10.8459
ns	-10.846
DefaultInstance	-10.8467
Mappings	-10.8469
▁Error	-10.8481
AT	-10.8483
import	-10.8485
▁doGet	-10.8497
▁seq	-10.85
ProtocolBuffer	-10.8501
getConnection	-10.8507
▁evaluate	-10.8509
AN	-10.851
Outline	-10.8511
▁received	-10.8517
TException	-10.8524
▁increment	-10.8526
Robot	-10.8529
▁Editor	-10.8534
Organization	-10.8536
Collectors	-10.8537
▁formatter	-10.8538
▁getIcon	-10.8545
window	-10.8549
Capability	-10.855
Requirement	-10.8551
Net	-10.8552
toList	-10.8556
Wizard	-10.856
ualifier	-10.8563
METHOD	-10.8564
▁2,	-10.8568
▁Pair	-10.8572
Station	-10.8573
▁panel	-10.8577
Scenario	-10.8582
Matches	-10.8584
mod	-10.8586
unlock	-10.8594
requestCode	-10.86
PACKAGE	-10.8607
static	-10.861
recursion	-10.8613
▁lhs	-10.862
▁shortcut	-10.8621
Packages	-10.8622
Contains	-10.8622
Review	-10.8624
Mms	-10.8624
getRequest	-10.8628
▁subscription	-10.8628
▁invocation	-10.8633
▁Rect	-10.8635
visitor	-10.8637
Updates	-10.8637
Repeat	-10.8638
AccessToken	-10.8642
loader	-10.8643
copyOf	-10.8644
▁permissions	-10.8644
Temp	-10.8647
Audit	-10.865
▁self	-10.8654
ErrorCode	-10.8657
True	-10.8659
LOCAL	-10.8663
▁focus	-10.8666
Pack	-10.8668
catch	-10.8669
▁receiver	-10.8669
Shell	-10.867
TreeNode	-10.8672
INPUT	-10.868
Merge	-10.8682
▁retrieve	-10.8686
fill	-10.8686
▁PrintWriter	-10.869
Anchor	-10.8691
▁N	-10.8691
unused	-10.8695
▁md	-10.8701
▁filters	-10.8702
notification	-10.871
▁getProperty	-10.8719
ou	-10.8725
Horizontal	-10.8725
▁toggle	-10.8726
▁TileEntity	-10.8734
▁cm	-10.8738
▁groups	-10.8739
schedule	-10.8745
EntityPlayer	-10.8745
100	-10.8745
sendTo	-10.8748
Persistence	-10.8757
Variant	-10.8758
Fill	-10.8758
download	-10.876
scope	-10.8761
Cost	-10.8761
ta	-10.8764
▁Camera	-10.8765
▁Enum	-10.8766
VIDEO	-10.877
▁route	-10.8771
▁localName	-10.8771
pool	-10.8778
dest	-10.8782
COLOR	-10.8784
▁"",	-10.8784
after	-10.8787
Prefs	-10.8788
▁PsiElement	-10.8788
Crop	-10.8789
BLUETOOTH	-10.8795
Accounts	-10.8797
env	-10.8801
setSummary	-10.8803
Credential	-10.8806
▁renderer	-10.8808
▁audio	-10.8809
allow	-10.881
getVersion	-10.881
Getter	-10.881
Ringtone	-10.8817
AD	-10.8824
LINE	-10.8827
FormatException	-10.8832
opcode	-10.8838
ping	-10.8839
▁FileUtils	-10.8842
▁Composite	-10.8845
TestUtils	-10.8851
Modification	-10.8861
obtain	-10.8862
Publication	-10.8863
visible	-10.8863
Prompt	-10.8868
Criteria	-10.8869
Normal	-10.8873
PRIORIT	-10.888
▁ParseException	-10.8881
MouseEvent	-10.8885
Margin	-10.8887
ment	-10.8891
Course	-10.8897
SEPARATOR	-10.8899
▁Array	-10.8901
GUI	-10.8901
OrSelfPermission	-10.8904
▁gui	-10.8905
▁Gui	-10.8906
▁ui	-10.8906
propertyName	-10.8907
▁author	-10.8907
2()	-10.8907
Management	-10.8912
FOR	-10.8913
▁algorithm	-10.8915
▁Add	-10.8919
th	-10.8923
Mark	-10.8925
transaction	-10.8926
Now	-10.8928
▁real	-10.8931
▁want	-10.8936
][	-10.8942
dispatch	-10.8949
site	-10.8955
Spawn	-10.8964
▁100	-10.8969
restore	-10.8972
Editable	-10.8973
rawContactId	-10.8974
▁FileSystem	-10.8975
▁publish	-10.8975
▁preview	-10.8978
▁describe	-10.8988
▁bounds	-10.8994
▁setMax	-10.8997
ADD	-10.9001
BACK	-10.9003
Alignment	-10.9004
▁stmt	-10.9005
ExceptionHandler	-10.9007
▁Socket	-10.9009
▁wrap	-10.9009
canvas	-10.901
RawContacts	-10.9012
round	-10.9019
which	-10.9019
Conversation	-10.903
withAppended	-10.903
Setter	-10.9038
Primary	-10.9038
▁global	-10.9041
▁getSelected	-10.9042
configure	-10.9052
▁getContent	-10.9059
Transformation	-10.9065
Ticket	-10.9073
▁states	-10.9074
Analyzer	-10.9078
Regex	-10.9086
Signal	-10.9087
▁trans	-10.9089
▁ResultSet	-10.9095
▁generator	-10.9096
Help	-10.9099
Radio	-10.91
▁mask	-10.9101
▁getState	-10.9102
FILTER	-10.9102
driver	-10.9105
▁font	-10.9106
Redirect	-10.9111
self	-10.9115
▁Action	-10.9116
login	-10.9121
▁into	-10.9121
setParameter	-10.9122
▁orientation	-10.9141
2));	-10.9143
▁play	-10.9151
merge	-10.9156
▁Task	-10.9159
direction	-10.9159
▁person	-10.9161
prop	-10.9171
▁Multi	-10.9171
▁mController	-10.9173
fire	-10.9178
Shared	-10.9178
tags	-10.9189
▁Debug	-10.9191
▁populate	-10.9193
▁Opcode	-10.9194
▁override	-10.9198
ce	-10.9202
▁attachment	-10.921
expr	-10.9211
▁tool	-10.9213
DISCONNECTED	-10.9213
▁isChecked	-10.9214
▁ss	-10.9216
▁always	-10.9227
EC	-10.9229
▁exec	-10.9229
KeyValue	-10.9231
▁principal	-10.9231
▁adjust	-10.9234
▁Device	-10.9234
simple	-10.9237
CHANNEL	-10.9238
HEADER	-10.9245
▁hostname	-10.9246
▁never	-10.9254
▁agent	-10.9254
▁pending	-10.9256
Price	-10.9257
per	-10.9264
▁missing	-10.9268
PublicKey	-10.9274
Receive	-10.9278
dp	-10.9278
▁getIntent	-10.9281
Labels	-10.9287
getTitle	-10.9288
▁Schema	-10.9289
("[	-10.9293
▁--	-10.9295
▁Dimension	-10.9297
Series	-10.9303
Addresses	-10.9308
(2,	-10.9311
Replace	-10.9313
▁observer	-10.9316
Specific	-10.9316
▁te	-10.9316
getAsString	-10.9318
▁Tile	-10.9318
Conference	-10.9323
DURATION	-10.9323
Coordinates	-10.9326
Ok	-10.9326
Days	-10.9329
▁getTest	-10.9331
getLast	-10.9334
SystemProperties	-10.9334
dump	-10.9335
destination	-10.9337
inventory	-10.9342
Authenticator	-10.9349
▁elem	-10.9349
Patient	-10.9349
quit	-10.9353
▁Filter	-10.9359
Accessor	-10.9361
▁Matrix	-10.9361
Slide	-10.9361
▁sortOrder	-10.9364
Instrumentation	-10.9364
Hex	-10.9365
▁mPhone	-10.9369
Energy	-10.937
getComponent	-10.9371
▁generic	-10.9372
MEDIA	-10.9374
▁details	-10.9376
mHandler	-10.9378
▁sInstance	-10.9384
Mgr	-10.9386
ErrorMessage	-10.939
force	-10.9398
invalidate	-10.9399
▁recipe	-10.9401
head	-10.9406
Compiler	-10.9407
▁down	-10.9407
▁ps	-10.9414
▁Geo	-10.9418
▁seed	-10.9428
Props	-10.9429
▁Validate	-10.943
Deserializer	-10.9438
getS	-10.9439
▁capacity	-10.9443
▁err	-10.9443
▁needs	-10.9444
Incoming	-10.9446
Geometry	-10.945
Notify	-10.9451
▁pid	-10.9453
getContent	-10.9455
GroupId	-10.9455
Mouse	-10.9456
SCREEN	-10.946
▁metric	-10.9464
cur	-10.9469
room	-10.9473
valid	-10.9478
ter	-10.9485
unmodifiableList	-10.9489
rawtypes	-10.9491
Hide	-10.9494
Study	-10.9499
▁"]	-10.9503
▁InetAddress	-10.9503
ResourceAsStream	-10.9513
Handlers	-10.9514
Based	-10.9516
▁Enumeration	-10.9519
Sim	-10.9522
ATION	-10.9524
NBTTagCompound	-10.9526
▁MotionEvent	-10.9529
▁drop	-10.9529
readLine	-10.9532
Damage	-10.9535
verify	-10.9542
References	-10.9546
▁cls	-10.9546
Requests	-10.9549
Aggregator	-10.9557
second	-10.9563
▁getObject	-10.9565
Interpolator	-10.9567
Unsupported	-10.9576
}")	-10.9578
Initialization	-10.958
▁packed	-10.9583
uid	-10.9584
▁AssertionError	-10.9589
▁schedule	-10.9592
Real	-10.9594
ut	-10.9601
▁validator	-10.9601
▁game	-10.9602
▁Resources	-10.9603
Proto	-10.9604
Dead	-10.9604
Force	-10.9604
TODO	-10.9608
obs	-10.9619
▁errorCode	-10.962
feature	-10.9624
VisibleForTest	-10.9629
isPresent	-10.9633
▁Authentication	-10.9638
where	-10.9644
setType	-10.9647
Foo	-10.9651
Unexpected	-10.9657
▁onOptions	-10.9661
getFirst	-10.9662
▁Database	-10.9665
let	-10.9669
Evaluation	-10.9675
Fetcher	-10.9677
Encounter	-10.9678
▁mCallback	-10.9679
Tools	-10.9682
SOURCE	-10.9686
types	-10.9689
member	-10.9691
▁mMax	-10.9694
▁1));	-10.9695
setColor	-10.9703
▁Looper	-10.9704
Cycle	-10.9704
Notifications	-10.9706
Con	-10.9707
side	-10.9709
▁STATE	-10.9715
ARRA	-10.9715
control	-10.9719
graph	-10.9722
▁ExpectedKey	-10.9735
opt	-10.9738
StackTrace	-10.9743
Caller	-10.9745
txt	-10.9755
Authority	-10.9756
▁term	-10.9757
TextField	-10.9759
getVisibility	-10.9761
▁Build	-10.9761
SeekBar	-10.9763
dr	-10.9778
om	-10.9782
SUCCESS	-10.9782
ee	-10.9786
pa	-10.979
▁Search	-10.9793
Detector	-10.9798
example	-10.9798
PAGE	-10.98
▁Custom	-10.9805
Backend	-10.9807
/{	-10.9808
▁construct	-10.9812
▁authentication	-10.9813
Bottom	-10.9817
ra	-10.9822
▁install	-10.9823
Upgrade	-10.9824
execS	-10.9826
SP	-10.9827
Roles	-10.9834
▁getOutput	-10.9834
Hour	-10.9838
iter	-10.984
▁usage	-10.9847
Constraints	-10.9849
ISO	-10.9851
▁AudioSystem	-10.9853
(-1);	-10.9857
Geo	-10.9862
bb	-10.9866
▁errorMessage	-10.9869
Lib	-10.9869
https	-10.9871
DE	-10.9873
columns	-10.9881
VO	-10.9889
Disk	-10.989
▁users	-10.989
Skip	-10.9893
TypeName	-10.9896
kind	-10.9898
Disable	-10.9902
▁each	-10.9906
rule	-10.9908
▁setDescription	-10.9912
▁testName	-10.9916
LAST	-10.9921
▁EC	-10.9925
gorithmException	-10.9926
Album	-10.993
Two	-10.9931
Encryption	-10.9936
pin	-10.9936
Serialization	-10.9937
Comments	-10.995
▁Operation	-10.9953
Ping	-10.9954
Dump	-10.9955
Representation	-10.9958
Rank	-10.9962
Histogram	-10.9964
less	-10.9977
▁outputStream	-10.9981
Callbacks	-10.9987
Indices	-10.9995
▁admin	-10.9996
▁getConnection	-10.9998
ohn	-11.0001
▁country	-11.0001
li	-11.0005
getCause	-11.0007
getField	-11.0008
TS	-11.001
Sum	-11.0014
ingException	-11.0017
▁reply	-11.0018
▁cv	-11.0019
ps	-11.002
▁DB	-11.0021
BluetoothHeadset	-11.0029
fetch	-11.003
An	-11.0031
▁gen	-11.0037
Actor	-11.0039
▁binder	-11.0039
▁deserialize	-11.004
▁runnable	-11.004
▁pipeline	-11.0042
diff	-11.0058
▁Module	-11.0058
▁looper	-11.0059
jar	-11.0061
skip	-11.0067
▁Process	-11.0068
▁")";	-11.0069
getClient	-11.007
Watcher	-11.0081
▁getPath	-11.0086
▁defValue	-11.0087
impl	-11.0088
NumberOf	-11.0091
Age	-11.0091
invalid	-11.0101
▁program	-11.0102
PATTERN	-11.0104
Reload	-11.0104
▁getHandle	-11.0106
▁showDialog	-11.0106
getTarget	-11.0106
Percent	-11.0109
▁mVideoEditor	-11.0109
Gap	-11.0113
]",	-11.012
FS	-11.0122
IMAGE	-11.0124
SelectionEvent	-11.0129
person	-11.0132
▁PackageManager	-11.0135
▁serializer	-11.0135
ROOT	-11.0137
cb	-11.0137
▁deleted	-11.0139
▁Delete	-11.0139
InstanceId	-11.0144
Struct	-11.0144
moveToFirst	-11.0148
Evaluator	-11.015
Higher	-11.0151
▁mText	-11.0151
▁getResource	-11.0165
writeByte	-11.0166
▁resId	-11.0169
Live	-11.0171
removeCallbacks	-11.018
getChildren	-11.0181
▁Bluetooth	-11.0185
Autowired	-11.0186
Ops	-11.0189
DOWN	-11.0189
▁recorder	-11.019
▁MediaFramework	-11.0195
outState	-11.0196
▁happen	-11.02
Association	-11.0204
▁dataSource	-11.0208
Be	-11.0208
Addr	-11.021
▁external	-11.0213
▁score	-11.0214
▁layer	-11.0217
Stmt	-11.0219
feed	-11.0225
▁material	-11.0226
Trip	-11.0228
setDefault	-11.0229
Toast	-11.023
Catalog	-11.0231
▁drawable	-11.0241
DateFormat	-11.0249
Cas	-11.0258
Same	-11.0262
scan	-11.0274
DIR	-11.0275
IF	-11.0276
red	-11.0278
cp	-11.028
getCode	-11.0281
Loop	-11.0283
▁preferences	-11.0286
getProperties	-11.0287
▁dataSet	-11.0288
▁mName	-11.0296
▁setType	-11.0296
▁receive	-11.0297
▁setParameter	-11.0297
Numeric	-11.0297
Coord	-11.0306
ness	-11.031
▁getLabel	-11.0311
0.0	-11.0312
▁mValue	-11.0319
Relationship	-11.0322
Utilities	-11.0323
filePath	-11.0324
Loc	-11.0328
serialize	-11.0332
{}	-11.0332
pi	-11.0334
Produces	-11.0335
▁center	-11.0336
unknown	-11.0343
DatabaseHelper	-11.0346
Toggle	-11.0347
before	-11.0361
Mute	-11.0361
Publisher	-11.0362
Previous	-11.0367
▁EndToEndTest	-11.0368
ByteBuf	-11.0371
EClass	-11.0375
▁bits	-11.0375
▁AudioManager	-11.0377
Benchmark	-11.0378
Vertical	-11.0379
▁getChild	-11.0382
BASE	-11.0388
Second	-11.0389
scroll	-11.0391
ONL	-11.0391
▁character	-11.0397
▁segment	-11.0406
MM	-11.041
▁sw	-11.041
▁NBTTagCompound	-11.042
Grammar	-11.0425
Into	-11.0427
he	-11.0427
▁binding	-11.0429
▁javax	-11.0431
▁pause	-11.0434
sPer	-11.0434
columnIndex	-11.0439
▁rect	-11.0441
▁rotation	-11.0446
RecordingService	-11.0452
▁Remote	-11.0454
▁animate	-11.0457
▁FileNotFound	-11.0461
IDs	-11.0463
RS	-11.0464
OUTPUT	-11.0465
){}	-11.0465
getPackageName	-11.0469
gen	-11.0472
gui	-11.0479
localhost	-11.0481
▁getFirst	-11.0481
Direct	-11.0482
Tx	-11.0483
Currency	-11.0484
▁Marker	-11.0485
▁bs	-11.0489
getColumnIndex	-11.0501
▁multi	-11.0509
Delimiter	-11.051
LOGTAG	-11.0514
else	-11.0525
PhoneCallDetails	-11.0527
assertTrue	-11.0529
▁reps	-11.0533
getUri	-11.0536
mlElement	-11.0537
Envelope	-11.0538
WORD	-11.0538
▁getTotal	-11.0541
FileDescriptor	-11.0545
Aware	-11.0549
vm	-11.0551
▁keep	-11.0552
SystemException	-11.0553
▁lp	-11.0555
changed	-11.0558
▁persist	-11.0562
extension	-11.0565
cluster	-11.0584
Versions	-11.0585
▁Constants	-11.0592
getElement	-11.0593
security	-11.0596
bucket	-11.0597
repo	-11.0597
Equal	-11.0601
▁bound	-11.0602
▁primary	-11.0603
Exp	-11.0612
Corpus	-11.0612
Instant	-11.0614
▁digest	-11.062
ForTest	-11.0621
removeAll	-11.0622
Apps	-11.0629
▁Tuple	-11.0632
▁requested	-11.0634
arguments	-11.0635
META	-11.0635
▁ok	-11.0641
▁Lists	-11.0643
Plot	-11.0648
ChannelHandler	-11.065
sIn	-11.0651
USE	-11.0656
pp	-11.0658
▁comparator	-11.066
▁getConfig	-11.066
package	-11.0662
;}	-11.0662
getColor	-11.0668
▁another	-11.0669
Foreground	-11.0669
UER	-11.0669
Room	-11.0671
socket	-11.0672
BigInteger	-11.0677
any	-11.0678
▁ContentUris	-11.0679
▁identity	-11.0679
▁mApp	-11.0686
ueryBuilder	-11.0699
▁help	-11.0701
STEM	-11.0705
()]);	-11.0709
props	-11.0716
registerReceiver	-11.0718
pt	-11.0722
▁getNum	-11.0724
▁getFormat	-11.0724
▁streamType	-11.0728
evaluate	-11.073
▁could	-11.0731
Toolbar	-11.0732
▁opt	-11.0733
▁changes	-11.0739
OAuth	-11.0742
▁space	-11.0742
Submission	-11.0745
▁IntentFilter	-11.0746
available	-11.0747
equal	-11.0748
Managed	-11.0753
Locations	-11.0754
▁stage	-11.0755
onStart	-11.0757
▁Android	-11.0758
▁StringWriter	-11.0759
▁capture	-11.0764
ViewModel	-11.0764
▁el	-11.0765
Existing	-11.0767
▁zone	-11.0773
▁statusCode	-11.0774
ator	-11.0775
Bin	-11.0775
Final	-11.0775
▁KeyStore	-11.0782
▁shape	-11.0785
ListItem	-11.0785
▁seconds	-11.0786
Comparison	-11.0787
HttpTransport	-11.0795
WS	-11.0801
▁NO	-11.0801
wait	-11.0803
RESPONSE	-11.0809
ABLE	-11.0814
uietly	-11.0816
▁given	-11.0816
▁connected	-11.0822
Logic	-11.0827
SUB	-11.0834
Odd	-11.0834
▁ComponentName	-11.0835
▁Tree	-11.0837
▁you	-11.0839
▁mTarget	-11.0845
▁take	-11.0845
▁ext	-11.0846
▁team	-11.0846
userName	-11.0849
▁calls	-11.0854
▁study	-11.0855
Pressed	-11.0857
Definitions	-11.0862
HTML	-11.0864
▁serviceName	-11.0866
▁getClient	-11.0866
doubleValue	-11.0869
▁getBase	-11.0872
SHORTCUT	-11.0874
warning	-11.0875
▁definition	-11.0881
Mailbox	-11.0882
Lang	-11.0883
Attempt	-11.0884
startActivity	-11.0888
▁depth	-11.0889
nextElement	-11.0892
EAR	-11.0893
▁impl	-11.0897
Graphics	-11.0903
PROFILE	-11.0904
▁runtime	-11.0906
▁GL	-11.0907
▁setState	-11.0908
Colors	-11.091
Ring	-11.091
▁paths	-11.0911
Analysis	-11.0912
lo	-11.0914
▁processor	-11.0917
ByteOrder	-11.0919
waitFor	-11.0919
FromParcel	-11.0922
▁Not	-11.0923
▁wrapper	-11.0933
PathParam	-11.0937
WRITE	-11.0942
▁visibility	-11.0945
▁getHeight	-11.0949
Assertion	-11.0949
("{	-11.095
center	-11.0955
▁history	-11.0963
ify	-11.0967
BUFFER	-11.0974
▁Plugin	-11.0975
▁getDevice	-11.0977
Rel	-11.0979
lib	-11.0981
product	-11.0983
recycle	-11.0984
Balance	-11.0989
BLOCK	-11.099
getDefaultS	-11.0991
tx	-11.0992
mapper	-11.0993
exec	-11.0995
lt	-11.0996
moveToNext	-11.0999
Discovery	-11.0999
Observation	-11.1002
displayName	-11.1002
full	-11.1002
▁Observable	-11.1003
Rest	-11.1003
▁mMedia	-11.1005
▁notifyDataSet	-11.1009
pid	-11.1015
longValue	-11.1018
▁callbacks	-11.102
Disconnect	-11.1021
▁caller	-11.1025
ForType	-11.1033
▁codec	-11.1042
▁doInBackground	-11.1043
ChangeEvent	-11.1044
PERM	-11.1045
Flash	-11.1046
incrementAndGet	-11.1046
HttpRequest	-11.1047
PropertyName	-11.105
▁timeUnit	-11.1052
HttpResponse	-11.1052
Biome	-11.1057
▁ObjectMapper	-11.1059
▁summary	-11.106
Should	-11.1062
uantity	-11.1063
▁Common	-11.1066
ueryString	-11.1069
Shadow	-11.107
TASK	-11.107
RegistryLite	-11.1072
setAction	-11.1074
▁registered	-11.1076
netSocketAddress	-11.1076
▁hasNext	-11.1077
▁onSuccess	-11.1079
▁period	-11.1079
setIcon	-11.1079
▁mSelected	-11.1081
ws	-11.1083
Craft	-11.1084
rackListActivity	-11.1092
setSelected	-11.1096
inputStream	-11.1097
PER	-11.1097
Executable	-11.1097
▁onCancel	-11.1101
Units	-11.1102
Exec	-11.1103
0000	-11.1104
Special	-11.1106
columnName	-11.1111
▁Charset	-11.1113
▁sent	-11.1113
prev	-11.1114
▁Serializable	-11.1116
flow	-11.1118
ACCESS	-11.1118
Fixed	-11.1127
getInputStream	-11.1128
▁onAnimationEnd	-11.1129
UnsupportedEncod	-11.1132
▁security	-11.1133
TOP	-11.1135
Transactional	-11.1141
ContextMenu	-11.1145
ORDER	-11.1148
DELA	-11.1148
comp	-11.1152
▁getDate	-11.1152
cm	-11.1154
play	-11.1158
Buttons	-11.1159
getResult	-11.1159
Confirmation	-11.1161
encoded	-11.1169
WithDataSet	-11.117
mm	-11.117
dd	-11.1172
ize	-11.1176
Indexer	-11.1177
LEVEL	-11.1177
getAnnotation	-11.1188
▁additional	-11.1191
Dot	-11.1192
(1));	-11.1193
ignore	-11.1193
rc	-11.1194
Flush	-11.1194
Duplicate	-11.1201
Bulk	-11.1203
NETWORK	-11.1203
▁df	-11.1206
groups	-11.1207
▁mDevice	-11.1208
listFiles	-11.121
HashCode	-11.121
getSelection	-11.1218
▁saved	-11.1218
OrThrow	-11.1218
Band	-11.1219
toHexString	-11.1221
▁getStart	-11.1223
bits	-11.1225
mytracks	-11.1227
Find	-11.123
▁cp	-11.1232
ized	-11.1232
ma	-11.1233
Calculator	-11.1234
Compression	-11.1235
Additional	-11.1238
se	-11.1239
▁mPrefs	-11.1241
normalize	-11.1242
getSize	-11.1242
WebElement	-11.1243
ids	-11.1251
Suite	-11.1251
("",	-11.1254
▁head	-11.1266
▁html	-11.1268
rate	-11.1268
interrupt	-11.1269
BAD	-11.127
Family	-11.127
drop	-11.1271
>>>	-11.1271
▁edge	-11.1271
Tabs	-11.1274
ualifiedName	-11.1274
setTime	-11.1276
Needed	-11.1279
20.	-11.128
perform	-11.128
▁mIcon	-11.1284
Mutable	-11.1284
obConf	-11.1285
ECTION	-11.1286
▁views	-11.1287
▁insn	-11.1289
▁rec	-11.129
Visit	-11.1291
▁Person	-11.1291
▁setContentView	-11.1294
Throw	-11.1296
▁chars	-11.1304
mimeType	-11.1307
Sources	-11.1312
▁safe	-11.1312
Highlight	-11.1313
")");	-11.1314
ad	-11.1318
▁cachedDevice	-11.1319
pr	-11.132
inner	-11.132
▁setData	-11.1321
000	-11.1323
created	-11.1328
SETTINGS	-11.1328
Death	-11.1332
▁mTitle	-11.1333
LOCK	-11.1336
newValue	-11.1337
ring	-11.1343
▁Remove	-11.1345
▁getAttribute	-11.1348
Resolve	-11.1348
getScheme	-11.135
case	-11.1361
▁U	-11.1362
▁credentials	-11.1362
▁Runtime	-11.1363
▁cf	-11.1368
SSH	-11.1378
arr	-11.1379
Coverage	-11.138
▁grid	-11.1382
previous	-11.1382
Choice	-11.1383
submit	-11.1385
DataOutputStream	-11.1385
▁Form	-11.1387
orElse	-11.1389
▁newArray	-11.139
IfNeeded	-11.1394
Delivery	-11.1395
▁loaded	-11.1396
▁ifdId	-11.1397
▁locator	-11.1398
▁Open	-11.1401
▁exp	-11.1402
Conn	-11.1405
Encoded	-11.141
FALSE	-11.1412
▁resourceId	-11.1413
parseLong	-11.1418
▁async	-11.1422
entries	-11.1424
Participant	-11.1424
Apply	-11.1426
ue	-11.1427
CA	-11.1436
Css	-11.1439
Slice	-11.1441
getModel	-11.1443
IDLE	-11.1444
▁102	-11.1444
removeMessages	-11.1445
condition	-11.1448
NODE	-11.1449
pe	-11.145
▁TFM	-11.1452
getView	-11.1456
Seed	-11.1456
▁reverse	-11.1461
CLEAR	-11.1462
LocalService	-11.1464
▁Option	-11.1468
mkdirs	-11.1468
done	-11.1469
[0])	-11.1473
▁icicle	-11.1474
ADMIN	-11.1474
eq	-11.1477
Behavior	-11.1478
▁DexBacked	-11.1488
▁200	-11.149
Sets	-11.1491
▁classLoader	-11.1494
getChildCount	-11.1495
Voice	-11.1497
packet	-11.1497
//	-11.1498
Statistic	-11.1499
Dict	-11.1503
▁pop	-11.1509
","	-11.1509
▁getC	-11.151
▁workspace	-11.1516
EN	-11.1518
Bus	-11.152
Streams	-11.152
Dim	-11.1523
buildParsed	-11.1528
▁ns	-11.1528
LFeature	-11.153
MATCH	-11.1531
Prepared	-11.1532
CS	-11.1533
▁getLong	-11.1535
featureID	-11.1543
▁LayoutInflater	-11.1546
Decorator	-11.1549
CACHE	-11.1553
▁provide	-11.1553
getRoot	-11.1558
Divider	-11.156
▁getSize	-11.1563
Elem	-11.1567
▁onPostExecute	-11.1569
operation	-11.1574
▁anchor	-11.1577
ServletContext	-11.1581
▁speed	-11.1581
Android	-11.1584
▁HttpResponse	-11.1585
▁free	-11.1589
Dispatch	-11.1594
PathVariable	-11.1595
mReceiver	-11.1599
Subscriber	-11.1603
ueryHandler	-11.1604
Aggregate	-11.1605
Expired	-11.1606
Timezone	-11.1606
▁ioe	-11.1606
▁concept	-11.1607
▁pair	-11.1608
ust	-11.161
▁implementation	-11.161
▁adjustSize	-11.161
OPEN	-11.1614
StartTime	-11.1615
▁getResult	-11.1623
▁rate	-11.1624
Channels	-11.1627
getStatusCode	-11.1627
▁separator	-11.1627
▁getDelegate	-11.1628
Print	-11.1629
▁getMin	-11.1632
DataInput	-11.1635
Fix	-11.1637
License	-11.1638
▁rest	-11.164
▁ft	-11.1641
▁","	-11.1641
▁delimiter	-11.1644
▁bot	-11.1644
Windows	-11.1647
▁INSTANCE	-11.1648
span	-11.165
Latency	-11.165
COMMAND	-11.165
PRIVATE	-11.165
failure	-11.1651
▁NoSuch	-11.1651
▁fix	-11.1653
▁gl	-11.1658
DONE	-11.1667
Sip	-11.1668
Allow	-11.167
ProgressBar	-11.1672
md	-11.1674
▁optional	-11.1676
extract	-11.1678
png	-11.168
Cms	-11.1683
ax	-11.1686
▁radius	-11.1686
▁getSession	-11.1687
▁clientId	-11.1688
getDrawable	-11.1696
MalformedURL	-11.1696
▁dao	-11.1696
▁Artifact	-11.1697
observer	-11.1698
ak	-11.1698
FIRST	-11.1701
▁master	-11.1706
man	-11.1713
Health	-11.1715
getUrl	-11.1716
getPosition	-11.1727
singletonList	-11.1728
ian	-11.1728
Submit	-11.173
▁possible	-11.1737
audio	-11.1738
BackgroundColor	-11.174
▁finalize	-11.1752
ty	-11.1756
▁latch	-11.1756
getNode	-11.1764
nActivityCreated	-11.1766
TES	-11.1766
links	-11.1767
Persistent	-11.1771
▁zoom	-11.1772
CUSTOM	-11.1772
ab	-11.1775
▁PARSER	-11.178
Lite	-11.1784
▁simple	-11.1786
Generate	-11.1786
▁reporter	-11.1791
getSelected	-11.1796
poll	-11.1802
▁sign	-11.1805
Callable	-11.1806
▁indent	-11.1807
SMS	-11.1812
▁frequency	-11.1812
Bookmark	-11.1812
Virtual	-11.1816
Starting	-11.1825
Members	-11.1828
▁sessionId	-11.183
ate	-11.1832
exp	-11.1834
readSmallU	-11.1843
▁Content	-11.1843
▁symbol	-11.1846
ity	-11.1846
▁Mockito	-11.1848
bottom	-11.1848
AppWidget	-11.1849
▁cfg	-11.1859
▁patient	-11.1859
ge	-11.1863
▁doPost	-11.1864
MessageType	-11.1873
AND	-11.188
▁messageId	-11.1889
Syntax	-11.1889
▁getTag	-11.1892
▁browser	-11.1894
▁Runnable	-11.1894
▁dis	-11.1897
rows	-11.1898
Wire	-11.19
Extras	-11.1902
br	-11.1905
▁information	-11.1908
Positions	-11.1908
▁getEntity	-11.1913
writeLong	-11.1914
hasMoreElements	-11.1915
Hello	-11.192
Scheduled	-11.1933
▁Fragment	-11.1936
▁selector	-11.194
Shift	-11.1941
initial	-11.1943
NPC	-11.1944
FOCUS	-11.1947
findItem	-11.1949
({	-11.1949
▁encoder	-11.1951
Obs	-11.1952
ValidationResult	-11.1955
00);	-11.1956
CHANGE	-11.1957
af	-11.196
▁setOn	-11.1964
Footer	-11.1967
▁Short	-11.197
▁angle	-11.1973
holder	-11.1974
mapping	-11.1984
▁1];	-11.1987
("-	-11.1988
resultCode	-11.1988
remaining	-11.1989
Certificates	-11.199
ContentProvider	-11.1991
try	-11.1991
▁js	-11.1992
▁modify	-11.1992
Velocity	-11.1992
Sorted	-11.1994
▁onService	-11.1995
▁FROM	-11.1996
Counters	-11.1997
▁peer	-11.2005
SEARCH	-11.2006
getChild	-11.2007
▁alarm	-11.2008
▁rel	-11.2014
()){	-11.2014
▁EntityPlayer	-11.2019
onOptions	-11.2019
PRE	-11.2023
origin	-11.2027
General	-11.2028
Tap	-11.203
▁transformer	-11.2033
Latch	-11.2033
translate	-11.2036
font	-11.2039
▁redirect	-11.2041
▁mClient	-11.2043
endpoint	-11.2045
▁Transformer	-11.2045
um	-11.2047
▁Label	-11.2049
Coded	-11.2053
Terminal	-11.2056
dc	-11.2057
Cipher	-11.2059
▁expand	-11.2065
Indent	-11.2067
▁TABLE	-11.2069
▁unique	-11.207
CR	-11.2071
AccountType	-11.2074
Recorder	-11.2074
mReverb	-11.2075
▁getTime	-11.2076
BIT	-11.2078
counter	-11.2084
▁testSet	-11.2085
▁bb	-11.2087
parts	-11.2097
▁mHeight	-11.2099
▁finished	-11.21
▁dataset	-11.2103
▁place	-11.2104
▁enforceCalling	-11.2104
effect	-11.2105
setDataSource	-11.2107
Hit	-11.2108
▁oldValue	-11.2112
MSException	-11.2117
▁NOT	-11.2117
▁RE	-11.2118
Watch	-11.2124
▁Container	-11.2124
Modify	-11.2128
Heap	-11.2132
MASK	-11.2133
Inline	-11.214
Decl	-11.2141
▁stored	-11.2141
ACTIVE	-11.2145
▁parsed	-11.2147
▁getInput	-11.2151
▁Cached	-11.2155
▁confirm	-11.2157
AsyncTask	-11.2158
setStatus	-11.2159
▁mOn	-11.216
DS	-11.2162
Wifi	-11.2163
InetAddress	-11.2168
▁Execution	-11.2171
only	-11.2179
ri	-11.2185
Week	-11.2185
Stopped	-11.2186
interval	-11.2191
Enter	-11.2192
marker	-11.2193
EF	-11.2193
▁Re	-11.2201
AttributeValue	-11.2205
expect	-11.2206
Sprite	-11.2206
▁retval	-11.2209
gc	-11.2209
Fault	-11.221
▁RequestMethod	-11.2212
Ldap	-11.2214
tagId	-11.2214
Decode	-11.2215
▁getRequest	-11.2215
--)	-11.2217
monitor	-11.222
DBC	-11.222
▁multiple	-11.2222
sonNode	-11.2222
year	-11.2223
testName	-11.2223
▁mOutput	-11.2223
reg	-11.2224
EOF	-11.2225
onStop	-11.2228
▁question	-11.2228
DexBackedDexFile	-11.2234
when	-11.2234
Typed	-11.2236
Expanded	-11.2236
mouse	-11.224
▁Link	-11.2244
TestSuite	-11.2246
▁present	-11.2246
▁inst	-11.2248
▁cs	-11.2249
work	-11.225
(12	-11.2251
isInitialized	-11.2256
▁branch	-11.2258
▁family	-11.2258
▁actions	-11.2259
ha	-11.2262
sonIgnore	-11.2263
Rectangle	-11.2265
hello	-11.2266
Clip	-11.2267
digest	-11.2267
POSITIVE	-11.2273
RequestBuilder	-11.2274
▁addTo	-11.2276
Dimensions	-11.2279
▁getWidth	-11.2281
Subtype	-11.2286
▁stat	-11.2287
ompletableFuture	-11.2289
▁IAudioService	-11.2294
▁zero	-11.2295
Shutdown	-11.2297
Circle	-11.2301
▁series	-11.2301
▁1:	-11.2301
▁dynamic	-11.2305
▁onCreateView	-11.2308
▁hit	-11.2311
are	-11.2317
BO	-11.2318
Const	-11.2323
Patch	-11.2326
▁ci	-11.2327
▁mCache	-11.2328
Figure	-11.233
Opened	-11.2331
writeTo	-11.2334
topic	-11.2334
getChildAt	-11.2336
▁Rectangle	-11.2345
▁AlertDialog	-11.2347
Ctx	-11.2348
concat	-11.2349
Embedded	-11.2352
▁10;	-11.2352
Tank	-11.2352
NORMAL	-11.2355
▁integer	-11.2357
▁completed	-11.2359
findBy	-11.2359
▁getHeader	-11.236
▁times	-11.2364
Subscribe	-11.2368
▁Web	-11.2368
TableName	-11.2369
WARNING	-11.2369
▁unset	-11.237
LEFT	-11.2376
▁assign	-11.2376
Injector	-11.238
▁ar	-11.2382
ofNullable	-11.2386
▁Column	-11.2389
▁services	-11.239
Party	-11.2391
▁Mutable	-11.2392
chunk	-11.2394
Pipe	-11.2404
▁translate	-11.2404
ColumnName	-11.2407
AMR	-11.2407
▁setCurrent	-11.2409
Measurement	-11.241
Playlist	-11.2413
addProperty	-11.2418
FieldName	-11.2419
Infos	-11.2419
Lifecycle	-11.2424
getIndex	-11.2424
City	-11.2425
www	-11.243
Conditions	-11.2432
Compare	-11.2434
It	-11.2436
LogLevel	-11.2441
Realm	-11.2443
▁EnumFacing	-11.2444
NUM	-11.2446
▁Standard	-11.2448
BufferSize	-11.2448
agent	-11.245
Between	-11.2451
ia	-11.2453
Large	-11.2459
▁registerA	-11.2472
Wallpaper	-11.2475
▁slide	-11.2475
Allocation	-11.2476
ServiceException	-11.2477
nodes	-11.2483
▁Metadata	-11.2485
▁getImage	-11.2486
diaframeworktest	-11.2486
ir	-11.2487
contentType	-11.2487
export	-11.249
▁console	-11.2491
sequence	-11.2491
▁mWidth	-11.2493
▁IOUtils	-11.2496
Feedback	-11.2499
getHeader	-11.2503
lp	-11.2504
▁typeName	-11.2505
▁mListeners	-11.2505
symbol	-11.2506
ess	-11.251
ers	-11.251
▁maybe	-11.2514
em	-11.2516
Initialized	-11.2518
Tracking	-11.2521
requestFocus	-11.2523
Enumeration	-11.2524
Routing	-11.2532
errors	-11.2534
sum	-11.2534
▁isSet	-11.2537
Framework	-11.2539
Publish	-11.254
Known	-11.2541
(2);	-11.2543
▁recipient	-11.2547
▁Un	-11.2548
▁Note	-11.2554
getColumn	-11.2554
FACTOR	-11.2556
Board	-11.2556
Wallet	-11.2556
▁loge	-11.2558
▁retry	-11.2559
▁without	-11.256
sign	-11.2564
▁mContent	-11.2564
Parsing	-11.2565
Exist	-11.2568
Indexed	-11.2568
INTENT	-11.2569
▁criteria	-11.2572
▁bug	-11.2574
ResolveInfo	-11.2575
ical	-11.2575
Observable	-11.2579
common	-11.2579
InProgress	-11.258
MBean	-11.2586
▁TypesWriter	-11.259
av	-11.259
tableName	-11.2592
▁getColumn	-11.2593
mCursor	-11.2593
Procedure	-11.2603
PropertyChange	-11.2604
calendar	-11.2604
▁requires	-11.2604
ELEMENT	-11.2606
isSelected	-11.2609
▁lat	-11.2622
Break	-11.2623
Ban	-11.2624
▁Mailbox	-11.2632
▁getP	-11.2637
partition	-11.2638
ve	-11.264
getBase	-11.2645
Tooltip	-11.2646
Some	-11.2647
▁shift	-11.2648
Aspect	-11.2651
▁instead	-11.2653
▁Site	-11.2654
▁alert	-11.2657
▁book	-11.266
volume	-11.2665
Charsets	-11.2665
Nested	-11.2666
Cleanup	-11.2667
bot	-11.2668
CURRENT	-11.2668
▁issue	-11.2671
BoundingBox	-11.2673
Aggregation	-11.2676
▁10)	-11.2678
▁collector	-11.2679
▁Cms	-11.2682
▁br	-11.2684
▁high	-11.2685
Steps	-11.269
route	-11.269
▁MediaPlayer	-11.2691
CODES	-11.2699
▁assertParsed	-11.2702
Decision	-11.2702
NE	-11.2703
Catch	-11.2712
LoaderManager	-11.2713
▁BaseDS	-11.2714
200	-11.2716
PASSWORD	-11.2716
Encrypted	-11.272
Confirm	-11.2721
getMin	-11.2721
HOST	-11.2722
▁points	-11.2722
ReadOnly	-11.273
getActive	-11.2732
cert	-11.2733
Destroy	-11.2736
FEATURE	-11.2738
▁still	-11.2738
▁net	-11.274
▁assertion	-11.2744
TimeMillis	-11.2744
▁LocalBluetooth	-11.2745
mi	-11.2746
Mem	-11.2746
▁bridge	-11.2751
found	-11.2752
▁mCall	-11.2753
Dependencies	-11.2756
Experiment	-11.2758
▁SystemClock	-11.2762
Projects	-11.2763
▁getDescriptor	-11.2763
Charge	-11.2766
LABEL	-11.2766
Pull	-11.2767
extra	-11.2768
▁getUrl	-11.2768
ance	-11.2775
calculate	-11.2777
▁BluetoothDevice	-11.2781
ProgressDialog	-11.2782
ep	-11.2783
move	-11.2787
Where	-11.2787
Sending	-11.2792
▁MediaType	-11.2794
Business	-11.2797
Exclude	-11.2798
getID	-11.2799
visibility	-11.2801
Generation	-11.2801
Indexes	-11.2801
▁Calls	-11.2803
▁components	-11.2803
▁PendingIntent	-11.2807
compute	-11.281
light	-11.2811
streamType	-11.2816
icicle	-11.2816
"");	-11.2817
mo	-11.2821
▁mS	-11.2825
eclipse	-11.2826
Eval	-11.2826
PIN	-11.2826
Portal	-11.2834
getDimension	-11.2835
▁Validation	-11.284
▁ResponseEntity	-11.2845
Codes	-11.2845
Translation	-11.2846
getPhone	-11.2847
addElement	-11.2849
Rating	-11.2852
tool	-11.2854
getNext	-11.2856
CONNECTED	-11.2859
Nickname	-11.2866
Music	-11.2866
▁getGroup	-11.2867
▁tm	-11.2868
getLabel	-11.287
▁mAccount	-11.287
Nav	-11.2872
Router	-11.2872
ence	-11.2873
FileFilter	-11.2874
act	-11.2875
▁Profile	-11.2876
Atom	-11.2876
evt	-11.2878
▁"_"	-11.2878
▁dy	-11.2879
rotateAngle	-11.2881
▁determine	-11.2882
Utility	-11.2885
Cast	-11.2885
CAMERA	-11.2895
▁two	-11.2895
Ident	-11.2896
getInteger	-11.2901
▁mSession	-11.2903
CMD	-11.2903
▁rand	-11.2905
addAction	-11.2906
Ssl	-11.2907
Customer	-11.2907
Vehicle	-11.2909
▁instances	-11.291
▁pdu	-11.2911
▁sc	-11.2912
Mutation	-11.2916
sWith	-11.2918
▁addresses	-11.2919
▁about	-11.2923
master	-11.2929
acquire	-11.293
gl	-11.2934
Rlog	-11.2935
help	-11.2935
SECONDS	-11.2935
listeners	-11.2939
▁setUser	-11.2939
co	-11.2941
serviceName	-11.2942
ting	-11.2945
▁getModel	-11.2951
Modules	-11.2959
▁records	-11.2962
Parsed	-11.2966
=").	-11.2972
Serial	-11.2973
▁vector	-11.2975
Resolved	-11.2977
▁getPlayer	-11.2977
Formatted	-11.2979
Partial	-11.2984
ec	-11.2984
▁zip	-11.2987
ization	-11.2987
▁viewer	-11.2988
▁getInt	-11.299
CBR	-11.299
▁equal	-11.2991
rest	-11.2992
getRuntime	-11.2992
Actual	-11.2993
▁phoneNumber	-11.2996
▁Protocol	-11.2997
Allele	-11.2998
Pager	-11.3002
sh	-11.3003
MeasureSpec	-11.3005
Append	-11.3006
ensure	-11.3007
▁NoSuchAl	-11.3008
▁jobId	-11.3009
putLong	-11.3011
pack	-11.3016
▁implement	-11.302
ueryParameter	-11.3022
▁share	-11.3023
▁Permission	-11.3024
MILLISECONDS	-11.3027
closed	-11.3027
▁Buffered	-11.3034
▁exchange	-11.3034
▁NumberFormat	-11.3035
▁getChildren	-11.3036
complete	-11.3037
Checksum	-11.3044
Pid	-11.3044
Transactions	-11.3045
Tier	-11.3055
▁tasks	-11.3058
errorInInitial	-11.3059
▁getLocation	-11.306
Meter	-11.3062
resId	-11.3063
CallLog	-11.3063
Bootstrap	-11.3065
--	-11.3067
RGB	-11.3071
▁needed	-11.3077
Legacy	-11.3077
▁links	-11.308
▁mItems	-11.3084
▁getNode	-11.3085
Controls	-11.3087
▁getMethod	-11.3087
▁mProfile	-11.309
RecyclerView	-11.3091
OutputFormat	-11.3091
Combo	-11.3098
Scene	-11.3099
ApplicationInfo	-11.3102
▁onChange	-11.3105
ActionListener	-11.3106
Shark	-11.3107
mask	-11.3108
Rewriter	-11.3108
ARG	-11.3109
getStart	-11.311
▁require	-11.3112
"})	-11.3113
Slider	-11.3114
VOLUME	-11.3116
getIdentifier	-11.3116
definitions	-11.3127
▁padding	-11.3129
▁regex	-11.3136
FOUND	-11.3143
Profiles	-11.3144
identity	-11.3144
▁connector	-11.3144
ating	-11.3148
High	-11.3152
public	-11.3154
▁getToken	-11.316
CurrentPosition	-11.3164
▁remaining	-11.3164
numberOf	-11.3165
ADDRESS	-11.3165
Beans	-11.3167
Try	-11.3168
2",	-11.3169
Wrap	-11.3172
MONTH	-11.3172
▁assume	-11.3175
sip	-11.3175
▁setText	-11.3176
texture	-11.3179
bool	-11.318
subscription	-11.3182
fa	-11.3182
newBuilder	-11.3186
statement	-11.3187
Ch	-11.3189
capacity	-11.3191
increment	-11.3192
(""))	-11.3193
Activation	-11.3194
uota	-11.3196
Aliases	-11.3198
ary	-11.3204
Ticks	-11.3209
FAILED	-11.321
▁accounts	-11.321
Compressed	-11.3214
Decimal	-11.3215
Drive	-11.3215
CommandSender	-11.3219
Samples	-11.3219
▁cond	-11.3225
▁Attachment	-11.3228
lines	-11.3231
go	-11.3235
principal	-11.3241
signature	-11.3241
▁isIn	-11.3245
Mixin	-11.3246
}",	-11.3246
ry	-11.3247
Violation	-11.3248
Cdma	-11.3248
▁getActive	-11.3248
policy	-11.3249
note	-11.3251
Verify	-11.3255
▁getServer	-11.3255
▁weight	-11.326
▁velocity	-11.3261
▁dict	-11.3262
▁sendRequest	-11.3265
Func	-11.3266
Req	-11.3266
▁ContentResolver	-11.3268
HOME	-11.3269
▁sensor	-11.3271
dao	-11.3272
Classpath	-11.3276
▁consume	-11.3277
▁calling	-11.3282
Restore	-11.3286
zip	-11.3287
non	-11.3289
()+"	-11.3291
Arrow	-11.3292
Counts	-11.3296
▁rc	-11.3297
ill	-11.33
persist	-11.3306
global	-11.3306
delta	-11.3307
▁variables	-11.3314
Trans	-11.3315
Author	-11.3323
ToFile	-11.3324
Membership	-11.3331
▁vec	-11.3332
weight	-11.3337
assertNotNull	-11.3337
CL	-11.3339
ActionView	-11.3342
readValue	-11.3345
groupId	-11.3345
Icons	-11.3347
▁SWT	-11.335
▁reg	-11.3354
▁reading	-11.3355
▁activate	-11.3356
FromResource	-11.3358
Comparable	-11.336
upload	-11.3362
AUTH	-11.3364
CORBA	-11.3367
Face	-11.3368
▁getLog	-11.3368
uick	-11.3376
▁EMPT	-11.3383
widgetSelected	-11.3386
▁too	-11.3389
Interpreter	-11.339
ability	-11.339
df	-11.339
▁getChildAt	-11.3394
Migration	-11.3394
CheckResult	-11.3395
▁vertex	-11.3396
Fake	-11.3396
artifact	-11.3396
▁getComponent	-11.3396
▁me	-11.3398
Git	-11.3401
▁getItemId	-11.3401
Waypoint	-11.3401
Stored	-11.3404
getUuid	-11.3404
setAlpha	-11.3406
rel	-11.3406
Prepare	-11.3408
▁transfer	-11.341
▁setS	-11.3411
▁"-	-11.3417
SDK	-11.3419
▁ts	-11.342
SESSION	-11.342
RESOURCE	-11.3422
CONTE	-11.3423
▁collect	-11.3425
mData	-11.3425
Escape	-11.3426
▁nested	-11.3426
▁touch	-11.3428
setting	-11.3433
ICON	-11.3434
Translator	-11.3435
▁Reference	-11.3444
▁"0"	-11.3444
▁features	-11.3446
Rpc	-11.3449
DataOutput	-11.3449
setSelection	-11.3451
▁ssl	-11.3452
HL	-11.3453
▁AsyncResult	-11.3454
▁its	-11.3458
▁firstName	-11.346
▁maximum	-11.3461
ueryParam	-11.3461
Resize	-11.3461
low	-11.3465
PT	-11.3469
Triple	-11.3471
UnknownHost	-11.3471
throw	-11.3471
MimeType	-11.3475
-2	-11.3475
▁contactUri	-11.3477
Google	-11.3477
Compound	-11.3478
mlPullParser	-11.3481
DP	-11.3485
getPort	-11.3485
xception	-11.3491
isClosed	-11.3495
:");	-11.3496
addListener	-11.3497
oid	-11.3499
▁validation	-11.3501
▁axis	-11.3501
Bug	-11.3504
game	-11.3505
▁getTable	-11.3506
getHost	-11.3507
hx	-11.3507
▁platform	-11.3509
single	-11.3517
CesiumWriter	-11.3519
UTC	-11.352
ToParcel	-11.352
▁Single	-11.3521
▁flow	-11.3527
ExecutorService	-11.3535
Pro	-11.3542
checked	-11.3545
Classification	-11.3548
Replacement	-11.3551
AudioFocus	-11.3552
▁processing	-11.3552
delay	-11.3555
▁getIndex	-11.3555
▁submit	-11.3559
▁MSG	-11.3559
▁area	-11.3559
▁startDate	-11.3563
BundleContext	-11.3569
Star	-11.3571
Criterion	-11.3573
POSITION	-11.3573
ENCODING	-11.3573
tl	-11.3577
Times	-11.3579
ToByteArray	-11.358
▁getLocal	-11.358
AC	-11.358
Processed	-11.3581
▁LinkedHashMap	-11.3582
startTime	-11.3583
sonValue	-11.359
▁initialValue	-11.359
▁Change	-11.3591
KeyPair	-11.3592
IndentingWriter	-11.3596
METADATA	-11.3596
allocate	-11.3602
ct	-11.3604
▁initialized	-11.3608
trigger	-11.3611
Bool	-11.3613
▁BLUETOOTH	-11.3616
▁aggregate	-11.3617
▁removeAll	-11.3618
▁convertTo	-11.3618
real	-11.3619
▁findBy	-11.362
▁during	-11.3622
ack	-11.3625
Relative	-11.3627
hostname	-11.3627
FULL	-11.3631
▁Track	-11.3631
parseFrom	-11.3634
▁replacement	-11.3634
ext	-11.3638
▁Reader	-11.3638
Numbers	-11.3641
▁escape	-11.3641
bin	-11.3641
▁got	-11.3643
▁oid	-11.3643
▁Script	-11.3644
sList	-11.3648
▁Dialog	-11.365
Hierarchy	-11.365
photo	-11.3651
▁prompt	-11.3654
Activities	-11.3655
Listing	-11.3656
ResponseBody	-11.3663
StatusCode	-11.3664
ueries	-11.3664
▁getSupported	-11.3665
javaType	-11.3666
detail	-11.3667
▁0:	-11.3675
Survey	-11.3675
InvocationTarget	-11.3677
▁TextUtils	-11.3679
Persist	-11.3679
Mobile	-11.3681
Encode	-11.3684
▁mDefault	-11.3684
▁NULL	-11.3686
▁currently	-11.369
▁detail	-11.3693
]))	-11.3694
▁resize	-11.3696
▁keyboard	-11.3698
install	-11.3699
Verifier	-11.37
Comp	-11.3702
cos	-11.3702
getLine	-11.3708
PARENT	-11.3712
js	-11.3712
cached	-11.3713
▁pointer	-11.3715
css	-11.3719
workflow	-11.3719
▁getDouble	-11.372
▁hex	-11.372
getLocal	-11.3727
(0.0	-11.3728
FontSize	-11.3732
▁mInflater	-11.3732
Dismiss	-11.3735
▁alt	-11.3735
>"	-11.3741
▁mime	-11.3742
Thumb	-11.3743
mAccount	-11.3744
BlockState	-11.3746
(",");	-11.3748
users	-11.3748
GeneratedMessage	-11.3749
setHeader	-11.3755
Slots	-11.3755
Maps	-11.3755
▁MENU	-11.3757
Reading	-11.3758
toCharArray	-11.3761
▁curr	-11.3763
isShowing	-11.3765
getStringExtra	-11.3765
▁loop	-11.3766
▁resultSet	-11.3768
ling	-11.3768
ff	-11.3771
▁tracker	-11.3773
aw	-11.3773
Cart	-11.3774
▁formatted	-11.3775
Readable	-11.3775
TimeStamp	-11.3786
▁dictionary	-11.3787
events	-11.3788
getReference	-11.379
Protection	-11.379
WITH	-11.3798
grid	-11.3802
messages	-11.3803
notifyDataSet	-11.3803
Parcelable	-11.3804
>[]	-11.3806
family	-11.3807
EDIT	-11.3813
MediaItem	-11.3818
mImage	-11.3819
CATEGOR	-11.3822
▁Bukkit	-11.383
Transient	-11.3831
▁being	-11.3833
stat	-11.3835
▁setSelected	-11.3837
WAIT	-11.3838
▁scanner	-11.3838
isBlank	-11.3841
consume	-11.3843
▁npc	-11.3844
})	-11.3847
▁forward	-11.3847
▁mReverb	-11.3848
▁jsonObject	-11.3849
More	-11.3849
Players	-11.3855
isVisible	-11.3857
UnlocalizedName	-11.3859
Src	-11.3861
SD	-11.3863
["	-11.3864
▁realm	-11.3864
Plus	-11.3865
RED	-11.3866
▁eventType	-11.3872
ap	-11.3874
VOICEMAIL	-11.3878
CHAR	-11.388
▁groupName	-11.3883
Expand	-11.3883
CacheEntry	-11.3883
▁theme	-11.3887
BT	-11.3892
▁Main	-11.3894
Mirror	-11.3894
▁trackId	-11.3899
▁getProperties	-11.39
▁filtered	-11.3901
▁minute	-11.3903
▁labels	-11.391
▁tv	-11.3913
Chest	-11.3918
MD	-11.3918
ERR	-11.392
InState	-11.3924
dst	-11.3924
▁accountName	-11.3925
Polygon	-11.3925
▁archive	-11.3925
RIGHT	-11.3926
PendingIntent	-11.3929
ListPreference	-11.3934
AudioEffect	-11.3937
ContactsContract	-11.3937
space	-11.3939
▁they	-11.3939
DOUBLE	-11.3942
orientation	-11.3946
▁contentResolver	-11.3947
▁qualifier	-11.3949
Verification	-11.395
batch	-11.395
▁Psi	-11.3951
SensorData	-11.3952
▁aliases	-11.3953
Swipe	-11.3957
▁constant	-11.3957
▁Writer	-11.3962
setInt	-11.3963
▁resume	-11.3964
▁normalize	-11.3965
sc	-11.3966
Armor	-11.3966
Im	-11.3971
▁mPlayer	-11.3973
EmailAddress	-11.3973
PERMISSION	-11.3975
Signed	-11.3978
Placeholder	-11.398
▁certificate	-11.398
NA	-11.3983
CallState	-11.3983
Issuer	-11.3984
HttpStatus	-11.3984
▁ImmutableSet	-11.3988
runTestOn	-11.3988
PhoneAccount	-11.3996
▁setStatus	-11.3996
▁LayoutParams	-11.3997
▁sorted	-11.3998
CANCELED	-11.3998
▁characters	-11.4001
hi	-11.4002
external	-11.4005
WebDriver	-11.4008
▁factor	-11.4008
▁onPrepare	-11.4009
author	-11.4009
lat	-11.4009
checkArgument	-11.401
▁lastName	-11.401
▁power	-11.4016
Cube	-11.4017
SHA	-11.4017
▁mPaint	-11.4019
Tracks	-11.4019
ServiceConnected	-11.402
setOn	-11.4022
Vec	-11.4026
▁getPage	-11.4027
TestTemplate	-11.4028
Like	-11.4029
▁snapshot	-11.4029
metric	-11.4032
▁handlers	-11.4032
▁extensions	-11.4035
CONNECT	-11.4036
▁getPosition	-11.4037
▁eval	-11.4039
predicate	-11.4039
TouchEvent	-11.404
CC	-11.4042
SS	-11.4044
pm	-11.4048
▁scheme	-11.4052
PROP	-11.4054
▁Storage	-11.406
Mac	-11.4061
▁upper	-11.4063
bound	-11.4069
▁Api	-11.407
▁Future	-11.4073
resume	-11.4076
native	-11.4076
optional	-11.4077
ix	-11.4079
itemStack	-11.4079
▁Async	-11.4079
Minutes	-11.4081
booleanValue	-11.4084
additional	-11.4085
npc	-11.4087
sendEmptyMessage	-11.4095
ueryResult	-11.4097
href	-11.4105
Original	-11.4107
annotations	-11.4107
elem	-11.4108
Outgoing	-11.411
▁"</	-11.4112
▁Channel	-11.4123
▁itemId	-11.4125
CHECK	-11.4125
environment	-11.4126
▁like	-11.4127
Generated	-11.413
ops	-11.413
EntityType	-11.4131
ca	-11.4136
Sp	-11.4138
Validate	-11.4138
▁git	-11.4138
plain	-11.4142
findElement	-11.4145
switch	-11.4152
variable	-11.4152
}/	-11.4157
InputMethod	-11.4159
▁co	-11.4159
Refs	-11.4162
▁millis	-11.4164
Fraction	-11.4166
▁modified	-11.417
charset	-11.4171
term	-11.4172
▁exclude	-11.4173
dx	-11.4175
▁disabled	-11.4176
▁HTTP	-11.4176
Digits	-11.4177
Providers	-11.4177
AsyncResult	-11.4177
Formula	-11.4177
cleanup	-11.4178
Weather	-11.4179
("</	-11.4187
SIM	-11.4189
EL	-11.4192
Dummy	-11.4195
▁ping	-11.4195
Patterns	-11.4195
▁getElement	-11.4199
Dock	-11.42
argument	-11.421
Functions	-11.4214
_1_	-11.4214
▁getNew	-11.4218
Ordered	-11.422
updated	-11.422
▁transition	-11.4227
WIDTH	-11.4234
getDisplayName	-11.4237
lan	-11.4239
▁sleep	-11.424
▁Parameter	-11.4242
Extent	-11.4242
Boundary	-11.4243
eg	-11.4248
▁explicit	-11.4249
://"	-11.4251
execution	-11.4252
▁see	-11.4252
Crypto	-11.4254
dict	-11.4255
Favorites	-11.4257
▁getBlock	-11.4257
▁library	-11.4258
▁Header	-11.4262
▁Product	-11.4262
Restart	-11.4263
▁minutes	-11.4264
▁pick	-11.4267
EntityLivingBase	-11.4267
usage	-11.4269
▁relative	-11.4271
▁lastModified	-11.4272
Logs	-11.4273
Keep	-11.4274
Datum	-11.4275
▁endTime	-11.4275
▁onFailure	-11.4275
▁binary	-11.4276
distance	-11.4282
EventType	-11.4282
Palette	-11.4283
alt	-11.4283
▁CloudException	-11.4285
▁pi	-11.4287
▁DataType	-11.4293
TAB	-11.4294
Stroke	-11.4295
methodName	-11.4298
▁Role	-11.4302
▁roles	-11.4305
consumer	-11.4309
TestHelper	-11.431
CENTER	-11.4311
▁commands	-11.4311
▁endDate	-11.4316
▁blob	-11.4317
▁sink	-11.4322
InCall	-11.4325
▁mActionBar	-11.4326
MILLIS	-11.4333
setProgress	-11.4333
▁pk	-11.4333
▁fd	-11.4334
▁reduce	-11.4334
▁waiting	-11.4334
Ports	-11.4337
▁matrix	-11.4341
Unsigned	-11.4341
cap	-11.4342
▁album	-11.4343
▁minimum	-11.4344
ol	-11.4345
mValues	-11.4351
getTable	-11.4359
▁ImageView	-11.4359
▁kv	-11.4368
▁mem	-11.4369
▁mail	-11.4369
▁patch	-11.4376
▁mDialog	-11.4378
▁printWriter	-11.438
▁dimension	-11.438
00000001)	-11.4383
-"	-11.4388
tructuralFeature	-11.439
▁STORET	-11.4392
ParameterTypes	-11.4394
sFrom	-11.4394
Configure	-11.4398
Manual	-11.4399
SeekTo	-11.4403
▁Font	-11.4405
▁rep	-11.4407
Lexer	-11.4409
zone	-11.4411
▁newState	-11.4412
Remaining	-11.4416
POS	-11.4416
classes	-11.4423
Strip	-11.4424
down	-11.4427
Undo	-11.443
TimeUnit	-11.4431
▁enum	-11.4433
Preset	-11.4434
over	-11.4435
getPlugin	-11.4435
ION	-11.444
defaultValue	-11.4442
FieldType	-11.4443
processor	-11.4445
sonElement	-11.4445
▁TestSuite	-11.4447
WebSocket	-11.4452
Percentage	-11.4454
▁low	-11.4456
MediaPlayerState	-11.4465
Bookmarks	-11.4468
Offer	-11.4468
Unavailable	-11.4469
▁matching	-11.447
Since	-11.4472
shortValue	-11.4472
▁unknown	-11.4475
isActive	-11.4476
▁ad	-11.4477
▁func	-11.4478
▁se	-11.448
Ns	-11.4481
Fast	-11.4482
▁dto	-11.4486
▁backup	-11.4487
▁prot	-11.4487
Increment	-11.4488
Facility	-11.4489
▁anim	-11.4489
war	-11.4491
Wrong	-11.4492
▁href	-11.4492
seed	-11.4494
▁cloud	-11.4495
Vote	-11.4496
▁shared	-11.4497
▁"-"	-11.4497
tc	-11.4498
▁CloudStack	-11.4505
▁quality	-11.4505
▁Render	-11.4506
▁gson	-11.4506
Inputs	-11.451
▁Timestamp	-11.451
LIMIT	-11.4512
FromFile	-11.4516
Coder	-11.4516
getDuration	-11.4519
▁until	-11.452
ALLOWED	-11.4522
Edges	-11.4525
statusCode	-11.4525
PROGRESS	-11.4526
Invoke	-11.4528
readByte	-11.4528
mContentResolver	-11.4531
Fixture	-11.4533
RawContact	-11.4533
▁rotate	-11.4536
ncodingException	-11.4539
▁Parse	-11.4541
FF	-11.4542
cf	-11.4551
▁"")	-11.4553
Extract	-11.4556
▁fm	-11.4556
cls	-11.4556
▁Direction	-11.4557
▁gc	-11.4558
▁damage	-11.4558
Ruby	-11.456
fix	-11.456
SessionId	-11.4564
setAccessible	-11.4571
▁strategy	-11.4571
▁getApplication	-11.4572
getDocument	-11.4575
▁Variable	-11.4578
▁FI	-11.4579
mNative	-11.458
details	-11.4581
▁setIs	-11.4582
executor	-11.4596
▁go	-11.4596
Registrants	-11.4601
verifierMap	-11.4602
▁getFilter	-11.4603
▁subId	-11.4605
MAIN	-11.4609
Atomic	-11.461
FileType	-11.461
▁dateFormat	-11.461
sensor	-11.461
TRACK	-11.4611
▁Bytes	-11.4612
▁terminate	-11.4614
▁Order	-11.4616
ServiceImpl	-11.4618
Illegal	-11.4618
nd	-11.462
take	-11.462
▁wrong	-11.4622
▁setEnabled	-11.4624
clean	-11.4627
ASCII	-11.4632
IE	-11.4632
▁OAuth	-11.4633
Categories	-11.4636
sonArray	-11.4638
jdbc	-11.4639
CellLayout	-11.4646
animate	-11.4646
PREFS	-11.4647
Cross	-11.4648
PO	-11.4649
scheme	-11.4649
controller	-11.4649
1000	-11.4655
▁locations	-11.4663
Deletion	-11.4666
cloud	-11.4667
GroupName	-11.4671
▁Principal	-11.4675
▁virtual	-11.4676
▁loading	-11.4676
Convert	-11.4676
createRawContact	-11.4681
board	-11.4681
isPlaying	-11.4682
writeBoolean	-11.4682
▁Cloud	-11.4686
▁calc	-11.4687
nt	-11.4691
▁authority	-11.4691
▁producer	-11.4692
Fire	-11.4695
Rotate	-11.4697
getAttributes	-11.4699
dynamic	-11.47
▁mModel	-11.4701
Naming	-11.4704
▁mat	-11.4705
getDevice	-11.4708
credentials	-11.4712
oo	-11.4718
▁Attributes	-11.4722
Shown	-11.4724
Recipients	-11.4725
TestRunner	-11.4727
RecordReader	-11.4727
AUTHORIT	-11.4729
▁pr	-11.473
CON	-11.4731
▁preferred	-11.4731
PECTED	-11.4732
▁mFilter	-11.4733
▁attempt	-11.4733
ever	-11.4733
▁WHERE	-11.4735
isIn	-11.4736
sim	-11.4736
▁hook	-11.4738
▁baos	-11.4739
Article	-11.474
>";	-11.4742
Trait	-11.4742
mail	-11.4743
Multipart	-11.4749
vector	-11.4751
Complex	-11.4752
0-	-11.4753
bi	-11.4755
False	-11.4755
STOP	-11.4756
▁readObject	-11.4757
LoadBalancer	-11.4758
ThreadPool	-11.4759
tp	-11.476
Rep	-11.4763
▁jar	-11.4767
ice	-11.4769
▁passed	-11.4773
Reverse	-11.4775
Bag	-11.4776
STATIC	-11.4784
Pdu	-11.4785
INVISIBLE	-11.4788
errorIn	-11.4789
parseDouble	-11.4791
ENGLISH	-11.4792
assignment	-11.4796
awt	-11.4798
▁lineNumber	-11.4799
Appender	-11.4799
chain	-11.4799
▁mMenu	-11.48
StatusChange	-11.4801
MLStream	-11.4801
▁bi	-11.4808
reverse	-11.4809
Pk	-11.4812
▁GLES	-11.4815
▁inject	-11.4816
▁setMessage	-11.4816
CONNECTION	-11.4818
▁pack	-11.4818
ServletRequest	-11.4821
▁surface	-11.4823
workspace	-11.4824
▁correct	-11.4829
Acl	-11.483
▁drag	-11.4833
Money	-11.4835
UEUE	-11.4836
THREAD	-11.4838
Rename	-11.4839
!",	-11.484
▁Ignore	-11.4843
▁facing	-11.4844
Oid	-11.4845
▁tz	-11.4846
registerIcon	-11.4848
▁"="	-11.4849
▁createNew	-11.4851
material	-11.4851
Multiplier	-11.4852
▁General	-11.4852
SEVERE	-11.4854
Hours	-11.4854
▁pkg	-11.4855
Drawer	-11.4856
literal	-11.486
▁recycle	-11.4862
bc	-11.4863
nextToken	-11.4863
▁20	-11.4864
PR	-11.4865
Working	-11.4865
bs	-11.4868
Physical	-11.4871
▁Cluster	-11.4875
getOffset	-11.4876
FILL	-11.4878
▁look	-11.488
Handling	-11.4883
▁presentation	-11.4883
▁IBlockState	-11.4883
▁WebView	-11.4887
PHOTO	-11.4889
▁round	-11.4889
▁Statement	-11.489
▁parameterName	-11.4894
tor	-11.4896
▁Sip	-11.4899
power	-11.49
00,	-11.4901
Alt	-11.4904
LOAD	-11.4906
attachment	-11.4912
ObjectIdentifier	-11.4913
WritableDatabase	-11.4915
▁DER	-11.4915
Ct	-11.4916
▁getPassword	-11.4918
▁Null	-11.4918
Online	-11.4918
▁getRoot	-11.4919
▁deploy	-11.4921
▁getProfile	-11.4923
setMax	-11.4923
▁instantiate	-11.4924
▁EntityType	-11.4925
Mob	-11.4927
▁am	-11.4929
▁LocalDate	-11.493
▁getError	-11.4932
Checkbox	-11.4933
MENU	-11.4935
▁mMin	-11.4937
WindowManager	-11.4938
Gesture	-11.494
▁AccountType	-11.4944
SSL	-11.4944
future	-11.4944
Ver	-11.4946
OC	-11.4946
▁onItemClick	-11.4948
Given	-11.4948
▁Nothing	-11.4948
▁mStart	-11.4949
▁getResponse	-11.4949
ist	-11.495
▁Template	-11.4955
ENABLE	-11.4955
ual	-11.4956
segment	-11.4958
▁dx	-11.4958
ssl	-11.4961
mView	-11.4961
▁constraint	-11.4962
getBody	-11.4962
Ims	-11.4964
▁tagId	-11.4968
primary	-11.4968
MB	-11.497
▁least	-11.4978
▁mAudioManager	-11.4984
tuple	-11.4986
Tenant	-11.4987
enc	-11.4989
▁mTime	-11.499
Bindings	-11.499
▁due	-11.4991
(1.0	-11.4992
AE	-11.4994
score	-11.4997
theme	-11.5003
Retrieve	-11.5003
▁bin	-11.5004
getES	-11.5005
▁Tag	-11.5006
cn	-11.5007
▁taskId	-11.5007
Particle	-11.501
Brightness	-11.5012
▁getA	-11.5019
▁FileWriter	-11.5019
201	-11.5022
Whitespace	-11.5024
▁signal	-11.5024
aa	-11.5024
▁lower	-11.5026
getSelectedItem	-11.5029
("/")	-11.5029
PRIM	-11.5035
▁decoder	-11.5035
addTestSuite	-11.504
Chooser	-11.5043
▁httpClient	-11.5045
▁orig	-11.5046
▁"}"	-11.5048
▁orderBy	-11.5048
(0))	-11.5052
lastModified	-11.5057
▁getChildCount	-11.5058
▁startId	-11.5059
setContent	-11.5063
Fallback	-11.5065
Clazz	-11.5066
▁mEntries	-11.5066
▁per	-11.5066
Deep	-11.5067
▁emit	-11.5067
Strict	-11.5072
yyyy	-11.5075
IBlockAccess	-11.5075
Devices	-11.5078
Expiration	-11.5079
▁retVal	-11.5082
▁accessToken	-11.5085
lms	-11.5088
ConnectedDevices	-11.5088
uad	-11.509
▁NotFound	-11.509
Sense	-11.5091
▁scenario	-11.5091
DN	-11.5092
Already	-11.5093
Helpers	-11.5093
onCheckedChanged	-11.5093
▁mMetadata	-11.5094
▁Make	-11.5094
fd	-11.5096
Graphic	-11.5099
TProtocol	-11.5102
000000	-11.5103
▁StackEvent	-11.5105
▁Parcel	-11.5107
pl	-11.5113
Fn	-11.5113
Picture	-11.5118
Movement	-11.5118
▁scheduler	-11.5118
prepareStatement	-11.5118
Related	-11.512
▁threshold	-11.5121
Bot	-11.5121
RESET	-11.5122
getPriority	-11.5123
share	-11.5124
▁contain	-11.5125
▁Environment	-11.5125
annotate	-11.5126
ournal	-11.5126
FromString	-11.5127
PUT	-11.5128
▁mediaType	-11.5129
IfNecessary	-11.5129
focus	-11.5129
DataManager	-11.5131
reflection	-11.5132
FROM	-11.5134
accountType	-11.5134
▁core	-11.5135
decl	-11.5137
▁getExtension	-11.5137
isConnected	-11.514
▁getProject	-11.5146
▁strip	-11.5146
oc	-11.5147
ag	-11.5151
Printer	-11.5151
launch	-11.5154
▁1000);	-11.5155
ActionPerformed	-11.5157
PES	-11.5158
▁isInitialized	-11.5158
CF	-11.5159
getHandle	-11.5159
ackson	-11.5161
▁Native	-11.5162
▁cc	-11.5164
FOLDER	-11.5174
▁getProvider	-11.5179
▁getPhone	-11.5179
▁setIcon	-11.518
CacheKey	-11.5183
DOM	-11.5184
CompoundButton	-11.5185
▁defined	-11.5186
isNullOrEmpty	-11.5187
▁home	-11.5198
Downloads	-11.5198
servlet	-11.5199
protocols	-11.5204
Tiles	-11.5204
EMAIL	-11.5205
▁over	-11.5206
▁parms	-11.5207
TC	-11.5209
▁instanceId	-11.5217
Focused	-11.5222
Tokenizer	-11.5223
TARGET	-11.5228
▁Feed	-11.523
toggle	-11.5239
isSet	-11.524
Ack	-11.5241
Low	-11.5241
Small	-11.5241
getNumber	-11.5242
Blacklist	-11.5242
▁threadId	-11.5245
▁normal	-11.5247
Trade	-11.5248
git	-11.5248
▁Tab	-11.5249
▁getMetadata	-11.5252
▁groupPosition	-11.5255
Freq	-11.5257
FI	-11.5258
EObject	-11.5261
UNDEFINED	-11.5265
▁Gson	-11.5266
▁workflow	-11.5266
Retriever	-11.5269
addAttribute	-11.527
servant	-11.5274
▁setKey	-11.528
Ascii	-11.5281
Parameterized	-11.5281
NativeType	-11.5283
▁apiKey	-11.5284
ub	-11.5284
▁Unsupported	-11.5291
recipe	-11.5292
floor	-11.5292
btn	-11.5292
▁setLast	-11.5295
setAdapter	-11.5296
▁attributeName	-11.5298
OM	-11.5306
dataSource	-11.5306
ne	-11.5308
▁poll	-11.5308
▁MESSAGE	-11.5309
setTag	-11.5309
MediaStore	-11.5312
ENTIT	-11.5314
Candidate	-11.5323
▁checksum	-11.5325
LongPress	-11.5325
▁revision	-11.5327
IpAddress	-11.5328
singleton	-11.5328
ci	-11.5329
]));	-11.5329
timer	-11.5329
iv	-11.533
Crafting	-11.533
shape	-11.533
getLeft	-11.5331
broadcast	-11.5331
▁mStatus	-11.5331
▁AST	-11.5334
▁testCase	-11.5334
▁WebElement	-11.5341
Dist	-11.5342
▁catalog	-11.5345
errorMessage	-11.5346
▁exceptions	-11.5346
Exact	-11.5347
Carrier	-11.5347
ore	-11.5348
permissions	-11.5349
▁//::	-11.5351
▁onBind	-11.5352
pc	-11.5353
cfg	-11.5353
▁getCommand	-11.5355
Positive	-11.5356
▁attach	-11.5365
readLong	-11.5367
Fling	-11.5368
IBlockState	-11.537
▁setHas	-11.5373
VERBOSE	-11.5375
getByte	-11.5376
▁ActionBar	-11.5379
▁servlet	-11.5381
▁currency	-11.5382
safe	-11.5382
Encodable	-11.5384
geo	-11.5384
dCorrectly	-11.5385
TimeoutException	-11.5385
OrBuilder	-11.5385
authentication	-11.5385
tokens	-11.5385
▁getValues	-11.539
Docs	-11.5391
▁bad	-11.5394
▁perm	-11.5394
▁way	-11.5396
question	-11.5397
gt	-11.5399
▁shell	-11.5403
▁struct	-11.5408
▁setParent	-11.5408
▁iface	-11.5408
▁members	-11.5409
ALWA	-11.5412
PreferenceChange	-11.5414
ejb	-11.5418
▁payment	-11.5419
▁columnLabel	-11.5424
ell	-11.5424
Until	-11.5428
▁mPreferences	-11.5429
Blank	-11.543
▁WS	-11.5431
ser	-11.5434
RAW	-11.5436
▁mUri	-11.5438
▁energy	-11.544
Dis	-11.544
Replication	-11.5441
▁audit	-11.5442
IM	-11.5442
Dom	-11.5442
Solr	-11.5443
Connectivity	-11.5443
Symbols	-11.5444
▁Binary	-11.5446
Snippet	-11.5447
Have	-11.5447
Waiting	-11.5448
certificate	-11.5448
getWindow	-11.5452
▁direct	-11.5452
▁ImmutableMap	-11.5457
gram	-11.5458
div	-11.5465
sInitialized	-11.5468
DataProvider	-11.5468
Recent	-11.547
▁Menu	-11.5473
(0.	-11.5474
Clone	-11.5474
Streaming	-11.5478
confirm	-11.5478
▁").	-11.5479
ErrorListener	-11.548
▁Input	-11.548
Tone	-11.5482
Lazy	-11.5484
Cancelled	-11.5484
▁mean	-11.5487
Checkpoint	-11.5487
▁avoid	-11.549
Temporary	-11.5496
▁again	-11.5497
▁mac	-11.5498
▁getHost	-11.5499
Sheet	-11.5501
▁act	-11.5503
setClassName	-11.5505
finalize	-11.5506
tm	-11.5506
LinearLayout	-11.5509
edu	-11.5509
▁seek	-11.551
Scrolling	-11.5511
suffix	-11.5513
Temperature	-11.5514
Notes	-11.5517
StructuredName	-11.5518
TypeId	-11.5519
sCount	-11.552
▁city	-11.5522
▁ct	-11.5525
avascript	-11.5526
OPTION	-11.5527
▁geo	-11.5528
▁sig	-11.5529
▁Predicate	-11.5533
▁DateUtils	-11.5534
Canonical	-11.5535
▁requestId	-11.5535
MIME	-11.5537
background	-11.5541
Filtered	-11.5543
ig	-11.5543
angle	-11.5545
Shard	-11.5546
▁Html	-11.5546
▁fn	-11.5549
▁setUse	-11.5559
▁PrintStream	-11.556
EncodableVector	-11.5562
Marshaller	-11.5562
initMock	-11.5563
Displayed	-11.5567
beginTransaction	-11.5568
TURE	-11.5573
Mime	-11.5575
▁"=	-11.558
▁tagName	-11.5584
▁Higher	-11.5584
Availability	-11.5588
ni	-11.5589
▁eventId	-11.5591
▁qName	-11.5593
ROLE	-11.5593
wrapped	-11.5595
Transcode	-11.5596
▁mPduHeaders	-11.5596
Configurator	-11.5599
Iter	-11.5599
Characteristics	-11.56
▁offer	-11.5601
ks	-11.5602
IME	-11.5603
meter	-11.5603
getBundle	-11.5604
▁BitmapFactory	-11.5607
construct	-11.5609
Dex	-11.5611
▁AudioTrack	-11.5612
accountId	-11.5617
CDMA	-11.5618
▁requests	-11.5622
pow	-11.5622
ViewPager	-11.5625
Successful	-11.5625
▁External	-11.5625
throwable	-11.5626
▁incoming	-11.5628
fromString	-11.5629
+"]	-11.5635
Buffers	-11.5635
Messaging	-11.5637
Severity	-11.5639
Configs	-11.5639
camera	-11.5641
Pixels	-11.5642
▁IO	-11.5644
PS	-11.5645
Descriptions	-11.5645
Performance	-11.5646
▁getColor	-11.5648
Inter	-11.5648
▁startIndex	-11.5652
▁Algorithm	-11.5653
▁getReference	-11.5655
▁handleException	-11.5656
▁Vec	-11.5657
▁getBoolean	-11.5662
Opt	-11.5665
Pay	-11.5666
▁units	-11.567
Blocking	-11.5674
▁tick	-11.5675
Density	-11.5675
sw	-11.5681
GC	-11.5682
history	-11.5684
Approval	-11.5684
MI	-11.5684
DataService	-11.5684
Handshake	-11.5685
▁mList	-11.5685
Exif	-11.5689
setDisplay	-11.5689
▁blocks	-11.5692
getResponse	-11.5695
oneId	-11.5698
▁worker	-11.57
ForResult	-11.5703
CH	-11.5707
await	-11.5713
▁getRaw	-11.5714
▁actor	-11.5721
▁"1"	-11.5721
▁getLine	-11.5723
regex	-11.5724
parseAs	-11.5728
▁percent	-11.5729
subscribe	-11.573
isNull	-11.5732
Cpu	-11.5734
Secondary	-11.5736
Faction	-11.5739
▁getDuration	-11.5741
Look	-11.5742
▁NoSuchElement	-11.5743
StateChange	-11.5744
edge	-11.5744
rec	-11.5745
each	-11.5745
▁...	-11.5746
getOpcode	-11.5749
▁mLocalAdapter	-11.5749
dl	-11.575
▁enforce	-11.575
DIRECTOR	-11.5751
be	-11.5755
Io	-11.5759
Correct	-11.576
minecraft	-11.5761
▁MenuInflater	-11.5761
);}	-11.5761
VAL	-11.5762
▁testCamera	-11.5763
▁verifier	-11.5766
▁parameterIndex	-11.5774
▁mCallbacks	-11.5775
floatValue	-11.5775
INITIAL	-11.5776
indent	-11.5777
11.	-11.5777
PART	-11.5777
MethodCall	-11.5784
toFile	-11.5787
onRestore	-11.5789
nbt	-11.5792
Packets	-11.5792
Playing	-11.5795
▁setTarget	-11.5797
Lease	-11.5799
selector	-11.58
▁candidate	-11.5801
free	-11.5804
Initializer	-11.5805
getDouble	-11.5809
fc	-11.5809
Terms	-11.5809
Kit	-11.5811
▁tc	-11.5811
loop	-11.5812
writeObject	-11.5815
Plain	-11.5817
SOUND	-11.5818
▁aspect	-11.5824
isOpen	-11.5826
operator	-11.5826
▁zk	-11.5827
ClassCast	-11.5831
anim	-11.5831
country	-11.5835
Icc	-11.5839
oauth	-11.584
UINT	-11.5844
Cling	-11.5849
Selectable	-11.5852
suite	-11.5853
Dest	-11.5866
SUPPORTED	-11.5867
ATTR	-11.5867
TransactionId	-11.5869
-0	-11.5869
Hover	-11.5871
ite	-11.5875
Macro	-11.5876
Operand	-11.5876
getGroup	-11.5877
mem	-11.588
multi	-11.588
▁UserHandle	-11.588
▁cn	-11.5884
uc	-11.5886
▁Solr	-11.5886
Negative	-11.5888
getNum	-11.5888
Adjust	-11.5888
stats	-11.5892
tick	-11.5893
cat	-11.5897
animation	-11.5899
setCurrent	-11.5902
filters	-11.5902
shared	-11.5903
CLOSE	-11.5903
▁starting	-11.5904
elementAt	-11.5904
locator	-11.5905
▁presenter	-11.5906
getIntent	-11.5914
Ifd	-11.5915
Repositories	-11.5915
Directive	-11.5917
Battery	-11.5918
FieldMapper	-11.5919
getPackage	-11.5919
sa	-11.5921
prefs	-11.5921
watcher	-11.5922
▁fit	-11.5922
▁rank	-11.5923
▁DialogInterface	-11.5927
SAVE	-11.5928
ERO	-11.5928
Dialpad	-11.5934
▁resolved	-11.5935
xmlType	-11.5937
shark	-11.5938
getMetadata	-11.5941
place	-11.5941
isAlive	-11.5945
ExifTag	-11.5945
▁rules	-11.5945
setImageResource	-11.5946
CommandLine	-11.5947
▁Git	-11.5947
TestResult	-11.5948
▁backend	-11.5948
OrNull	-11.595
Responses	-11.595
▁Email	-11.595
UserName	-11.5953
SubMenu	-11.5954
▁DataSet	-11.5956
Normalized	-11.5957
executeUpdate	-11.5961
▁NodeList	-11.5963
getOutput	-11.5963
▁cancelled	-11.5964
isLoggable	-11.5964
getSystem	-11.5969
SCAN	-11.5972
MUSIC	-11.5974
dt	-11.5975
Compute	-11.5976
(1).	-11.5978
Widgets	-11.5979
▁secret	-11.598
dimension	-11.598
Anim	-11.598
▁injector	-11.5982
layer	-11.5984
▁acquire	-11.5984
BException	-11.5987
art	-11.5987
▁Row	-11.5989
▁Category	-11.5992
memory	-11.5995
(-1,	-11.5996
setFlags	-11.5998
▁worldIn	-11.5998
▁nickname	-11.5999
▁terminal	-11.6001
Rec	-11.6002
Spatial	-11.6003
POWER	-11.6003
ResourceType	-11.6006
Hardware	-11.6011
▁fieldId	-11.6011
Inv	-11.6012
▁jdbc	-11.6012
Assign	-11.6014
▁videoEditor	-11.6017
kaleo	-11.6023
▁pt	-11.6024
▁getSub	-11.6025
▁getUri	-11.6028
StateMachine	-11.603
▁bucketName	-11.6037
Plugins	-11.6041
cookie	-11.6042
Collision	-11.6043
▁AudioFormat	-11.6044
▁listView	-11.6047
▁choose	-11.6049
▁sms	-11.6051
Prefixes	-11.6058
Outer	-11.6058
late	-11.6059
Arr	-11.6059
▁Load	-11.606
LOGV	-11.6062
EndDate	-11.6063
Lane	-11.6064
▁mCachedDevice	-11.6064
async	-11.6065
▁Mongo	-11.6067
sessionId	-11.6072
2");	-11.6072
PROVIDER	-11.6074
team	-11.6075
OptionPane	-11.6075
▁logd	-11.6079
DO	-11.6083
None	-11.6086
▁mHas	-11.6087
Grant	-11.6087
Sha	-11.6088
Gps	-11.6088
StartDate	-11.6088
Soft	-11.6089
▁plan	-11.6089
GP	-11.6091
▁through	-11.6093
IBinder	-11.6094
▁2:	-11.6094
▁ws	-11.6095
Attrs	-11.6097
▁sound	-11.6097
startActivityFor	-11.6098
▁enqueue	-11.61
Recovery	-11.6103
ally	-11.6104
▁Support	-11.6105
▁requestLayout	-11.6105
mx	-11.6115
jsp	-11.6116
▁CalendarUrl	-11.6117
ContentHandler	-11.6117
MIDI	-11.6122
Insets	-11.6126
existing	-11.6129
▁face	-11.6136
inject	-11.6137
month	-11.6138
▁once	-11.6139
IES	-11.6142
EGL	-11.6143
▁mLauncher	-11.6145
registry	-11.6147
OVER	-11.6148
UserData	-11.6149
mCallback	-11.615
Attachments	-11.6151
▁entities	-11.6151
Outcome	-11.6152
Sys	-11.6157
Poll	-11.6162
AM	-11.6163
▁Memory	-11.6163
branch	-11.6168
aml	-11.6168
Must	-11.6169
▁Paint	-11.617
EncodedString	-11.6177
▁mLayout	-11.6178
ObjectId	-11.618
▁Metric	-11.6182
izer	-11.6185
getParameters	-11.6186
addFlags	-11.6187
BluetoothClass	-11.6187
▁clicked	-11.6189
Deploy	-11.6192
SCROLL	-11.6192
ASTNode	-11.6193
▁age	-11.6193
▁EventPriority	-11.6194
transit	-11.6195
Cur	-11.6197
Caching	-11.6201
flip	-11.6202
▁Writable	-11.6203
SELECTED	-11.6204
services	-11.6205
▁dp	-11.6206
▁Dynamic	-11.6206
▁Accessibility	-11.6207
Deltas	-11.621
▁Constant	-11.6212
SL	-11.6215
randomUUID	-11.6215
▁Int	-11.622
▁xpath	-11.6221
mob	-11.6222
Offline	-11.6223
Press	-11.6224
receiver	-11.6225
Conflict	-11.6227
ET	-11.623
That	-11.623
▁mParent	-11.623
▁seekTo	-11.6231
▁WeakReference	-11.6231
TRACE	-11.6239
Injection	-11.6243
bl	-11.6243
▁kill	-11.6245
▁getNumberOf	-11.6247
IgnoreCase	-11.6247
algorithm	-11.6248
▁compound	-11.6248
entityId	-11.6248
▁getEnd	-11.6249
getP	-11.6251
Wave	-11.6251
Draft	-11.6252
Digit	-11.6261
mDevice	-11.6264
study	-11.6265
▁counts	-11.6265
vo	-11.6266
RECORD	-11.6268
ChangedObserver	-11.6269
UserInfo	-11.627
Guard	-11.6271
onError	-11.6272
▁mConnection	-11.6273
edBy	-11.6273
▁quote	-11.6273
getParentFile	-11.6275
COL	-11.6277
getExternal	-11.628
▁named	-11.628
reload	-11.6282
></	-11.6283
ClassNotFound	-11.6284
present	-11.6285
Deserialization	-11.6286
Textures	-11.6286
SortOrder	-11.6287
Moving	-11.6293
▁serialized	-11.6293
lu	-11.6294
DropDown	-11.6294
Chronology	-11.6303
coprocessor	-11.6303
Red	-11.6303
widthMeasureSpec	-11.6306
FM	-11.6306
PhoneNumberUtils	-11.6309
Defined	-11.6309
▁getList	-11.6313
SEND	-11.6316
biz	-11.6317
generic	-11.6319
readObject	-11.632
Animations	-11.6322
PROTOCOL	-11.6323
▁warning	-11.6326
▁fp	-11.6326
▁getR	-11.6328
attrs	-11.6328
getDeclaredField	-11.6329
Diagram	-11.633
avaScript	-11.633
▁Report	-11.6331
▁cast	-11.6332
000);	-11.6333
▁getAddress	-11.6336
oined	-11.6337
▁fallback	-11.634
Changing	-11.6343
setLength	-11.6344
Tech	-11.6344
Calendars	-11.6347
▁deviceName	-11.635
SPACE	-11.6351
way	-11.6353
BitSet	-11.6355
▁Graph	-11.6355
IL	-11.6358
▁oprot	-11.636
▁setC	-11.6362
▁mFragment	-11.6364
▁setVisible	-11.6366
Coords	-11.6368
▁getEvent	-11.637
▁cleanUp	-11.637
Hostname	-11.637
▁img	-11.6374
getShort	-11.6374
rm	-11.6376
pro	-11.6376
cal	-11.6377
getEncoded	-11.6379
▁station	-11.6379
pending	-11.638
fine	-11.638
Targets	-11.638
▁primitive	-11.638
Stock	-11.6382
▁Download	-11.6384
Datastore	-11.6386
▁Db	-11.6388
Fact	-11.6391
Perm	-11.6391
CtType	-11.6392
FAILURE	-11.6394
WEB	-11.6394
named	-11.6396
ho	-11.6399
isNotEmpty	-11.6399
▁Fake	-11.64
▁Files	-11.6401
▁engineGet	-11.6404
ClassPath	-11.6406
findFirst	-11.6407
▁imageView	-11.6407
Dn	-11.6411
SensorManager	-11.6412
EndTime	-11.6413
▁setProperty	-11.6413
Demo	-11.6414
▁GlideOptions	-11.6414
Movie	-11.6415
getArguments	-11.6415
Err	-11.6415
OnError	-11.6417
▁pixel	-11.6418
Servers	-11.6418
INITIALI	-11.6418
binding	-11.6423
Parallel	-11.6425
▁entityId	-11.6431
▁klass	-11.6433
▁turn	-11.6434
▁Proxy	-11.6435
▁coord	-11.6435
SH	-11.6437
getImage	-11.6437
deserialize	-11.6438
period	-11.6438
▁isLoop	-11.6441
▁mScroller	-11.6442
▁msgs	-11.6443
▁minor	-11.6445
isRemote	-11.6446
alert	-11.6449
▁chart	-11.645
▁HttpClient	-11.6457
▁txt	-11.6458
Cap	-11.6459
Visual	-11.6459
postDelayed	-11.6462
MENT	-11.6462
mt	-11.6463
getAdapter	-11.6465
setImageDrawable	-11.6467
▁Comparable	-11.6474
HEIGHT	-11.6476
mScoClients	-11.6477
▁getArguments	-11.6477
VBR	-11.6478
▁checkStatus	-11.6479
▁popup	-11.6479
CB	-11.648
DROP	-11.6487
modify	-11.6493
setString	-11.6494
started	-11.6495
▁Use	-11.6496
▁mShortcut	-11.6496
▁Parser	-11.6498
using	-11.6498
Unchecked	-11.6499
ModelType	-11.6502
00000002)	-11.6503
▁inflate	-11.6503
tts	-11.6503
gs	-11.6505
▁getDisplayName	-11.6506
▁Consumer	-11.6507
Individual	-11.6507
▁consumeToken	-11.6511
ld	-11.6512
▁released	-11.6513
dataSet	-11.6516
▁getPort	-11.6517
▁hour	-11.6517
▁thumbnail	-11.6519
CP	-11.6522
▁mDisplay	-11.6524
panel	-11.6526
▁appId	-11.6528
rep	-11.6528
▁Operator	-11.6529
▁getE	-11.6531
notifyAll	-11.6533
DC	-11.6534
isNotBlank	-11.6538
Compact	-11.6539
bus	-11.6541
IsSet	-11.6545
▁Binder	-11.6546
Facet	-11.6547
▁registration	-11.6549
▁restart	-11.6552
Configured	-11.6552
getDate	-11.6554
Ranges	-11.6554
▁isVisible	-11.6555
▁RectF	-11.6555
di	-11.6556
▁mDelegate	-11.6556
Company	-11.6557
STORE	-11.6568
▁onBackPressed	-11.6568
▁isActive	-11.6568
▁mTag	-11.657
▁them	-11.6571
cu	-11.6572
Presence	-11.6575
da	-11.6576
▁getM	-11.6577
Bigram	-11.6579
▁mCount	-11.6584
wt	-11.6584
▁recording	-11.6585
▁care	-11.6588
rotation	-11.6591
isFile	-11.6596
ified	-11.6596
▁rev	-11.6597
ql	-11.6598
▁longitude	-11.6602
rp	-11.6604
publish	-11.6606
getModifiers	-11.6606
BI	-11.6608
▁Haxe	-11.661
▁getMap	-11.6612
▁DateFormat	-11.6613
fn	-11.6624
ValueAnimator	-11.6624
▁Batch	-11.6625
▁outer	-11.6625
sound	-11.663
▁itr	-11.6634
▁Video	-11.6634
FileNotFound	-11.6636
▁css	-11.6636
onAttach	-11.6637
Folders	-11.6637
ImageButton	-11.6641
setBackground	-11.6642
getChannel	-11.6642
ud	-11.6647
recording	-11.6647
▁testing	-11.6656
(0),	-11.6661
demo	-11.6662
▁spawn	-11.6666
StreamVolume	-11.667
sent	-11.6672
retrieve	-11.6673
-1)	-11.6674
ResponseStatus	-11.6674
Precision	-11.6674
PairwiseTest	-11.6674
CustomView	-11.6678
▁ii	-11.668
PoolSize	-11.6683
▁projectName	-11.6683
▁onDismiss	-11.6685
▁HttpTransport	-11.6685
_2_	-11.6685
▁fixed	-11.6686
▁Send	-11.6687
td	-11.6687
ted	-11.6688
2>	-11.6688
Exporter	-11.6691
ConfigFile	-11.6691
▁allocate	-11.6692
▁Icon	-11.6693
Iteration	-11.6697
▁builderForValue	-11.6698
Hive	-11.6699
Art	-11.6703
plan	-11.6704
Then	-11.6705
▁Don	-11.6705
deprecation	-11.6706
metrics	-11.6708
sym	-11.6713
program	-11.6714
SHIFT	-11.6715
Weak	-11.6717
AFTER	-11.6718
▁buttons	-11.6718
expand	-11.6719
SemanticTag	-11.6723
▁blank	-11.6724
FRAGMENT	-11.6727
STORAGE	-11.6727
▁ejbObject	-11.6727
▁Sub	-11.6728
saved	-11.6728
Timeline	-11.673
edis	-11.6734
▁Empty	-11.6738
▁mMessage	-11.6744
ToBe	-11.6749
AccountManager	-11.675
Headset	-11.6751
▁BufferedWriter	-11.6752
getIcon	-11.6759
tagging	-11.676
onComplete	-11.6761
BC	-11.6762
Facing	-11.6764
▁getIs	-11.6764
▁disconnected	-11.6765
Upon	-11.6766
Reg	-11.6767
secret	-11.6768
getTileEntity	-11.6771
▁Feature	-11.6776
▁StringTokenizer	-11.6777
Inverse	-11.6779
ResponseHandler	-11.678
SINGLE	-11.678
Literals	-11.678
▁runner	-11.6781
▁stopped	-11.6782
cd	-11.6785
▁mProgress	-11.6787
Average	-11.6789
▁bootstrap	-11.6789
▁press	-11.6793
Csv	-11.6795
▁machine	-11.6799
Continue	-11.6799
▁upgrade	-11.6801
▁Select	-11.6801
parsed	-11.6801
gid	-11.6804
▁quantity	-11.6806
escape	-11.6806
sonParser	-11.6807
Strength	-11.6808
▁getEntry	-11.681
isInstance	-11.6813
Boot	-11.6814
Linear	-11.6816
▁Box	-11.6817
▁mAction	-11.6818
mc	-11.6819
Equalizer	-11.682
rand	-11.682
TI	-11.682
"},	-11.6821
TableModel	-11.6821
NetworkResponse	-11.6822
▁wire	-11.6825
Lat	-11.6825
Integration	-11.6827
Dst	-11.6827
bt	-11.6829
getCanonicalName	-11.6831
INCOMING	-11.6833
mUiccApplication	-11.6833
createTempFile	-11.6839
getClassName	-11.6844
ImageDescriptor	-11.6845
▁sip	-11.6846
▁mPending	-11.6847
▁both	-11.6849
mb	-11.6852
▁sr	-11.6853
eval	-11.6854
COMPONENT	-11.6854
getCommand	-11.6854
Production	-11.6855
sms	-11.6856
Hosts	-11.6858
Logout	-11.6858
Kill	-11.686
▁getD	-11.6861
PsiElement	-11.6865
ib	-11.6872
AccessControl	-11.6872
au	-11.6875
▁TreeMap	-11.6875
suggest	-11.6875
curr	-11.6876
TrackingTouch	-11.6876
▁mv	-11.6877
enter	-11.6879
▁maxSize	-11.688
getEnd	-11.688
spawn	-11.6881
SELECTION	-11.6887
▁itemView	-11.6888
LOGD	-11.6889
▁interface	-11.689
quote	-11.6894
▁"{	-11.6895
integer	-11.6895
Invite	-11.6897
SCHEMA	-11.6897
hadoop	-11.6897
PLAIN	-11.6903
craft	-11.6903
Was	-11.6907
INTERVAL	-11.6908
RequestParam	-11.6909
▁latitude	-11.691
DDF	-11.6911
▁getLogger	-11.6915
▁New	-11.6915
runtime	-11.6915
▁Range	-11.6915
▁something	-11.6924
▁organization	-11.6925
▁mDuration	-11.6928
InSeconds	-11.6928
Reduce	-11.693
▁pageSize	-11.6934
emptyMap	-11.6935
GroupMembership	-11.6937
UserAgent	-11.6938
Student	-11.694
ALARM	-11.694
Rendering	-11.6942
na	-11.6942
▁define	-11.6942
▁mButton	-11.6942
allowed	-11.6943
▁getDomain	-11.6945
zoom	-11.6946
Logo	-11.6947
ban	-11.6948
▁getTemplate	-11.695
▁acc	-11.6951
SequenceNumber	-11.6953
pkg	-11.6954
Go	-11.6958
trans	-11.6961
EventBus	-11.6962
pad	-11.6962
ANT	-11.6964
(10);	-11.6967
SurfaceTexture	-11.6967
Invoker	-11.6968
eforeTextChanged	-11.6968
▁ai	-11.6968
▁interrupt	-11.6972
MessageId	-11.6974
Configurer	-11.6974
issue	-11.6976
Perspective	-11.6977
Flat	-11.6978
RES	-11.6979
Installation	-11.6983
About	-11.6984
▁ce	-11.6984
▁broker	-11.6985
resolver	-11.699
pathParts	-11.6994
▁authorizer	-11.6997
▁getOwner	-11.7004
>...	-11.7005
▁also	-11.7006
depth	-11.701
Most	-11.701
▁customer	-11.7012
▁Format	-11.7014
▁registerFor	-11.7016
▁mSize	-11.7017
concurrency	-11.7018
▁subscriber	-11.7018
▁abort	-11.7019
NAMES	-11.7019
▁participant	-11.702
actions	-11.7021
Mean	-11.7023
AlertDialog	-11.7024
obId	-11.7029
▁mLooper	-11.7029
sha	-11.7029
InputType	-11.7032
▁mItem	-11.7035
Advanced	-11.7037
({"	-11.7041
CRL	-11.7045
1")	-11.7049
nvocationOnMock	-11.705
▁entityManager	-11.7052
Attached	-11.7053
SECOND	-11.7053
▁different	-11.7056
StatusBar	-11.7057
ProtocolVersion	-11.7058
accounts	-11.706
▁baseUrl	-11.706
tasks	-11.706
Inf	-11.7062
Reporting	-11.7062
Air	-11.7063
onAnimationStart	-11.7063
▁launcher	-11.7066
rt	-11.7067
Characters	-11.7067
pair	-11.7068
Unsafe	-11.7069
ORIENTATION	-11.7071
▁underlying	-11.7072
isCancelled	-11.7075
img	-11.7076
▁PreferencesUtil	-11.7077
IntExtra	-11.7081
ay	-11.7081
▁sources	-11.7081
▁"["+	-11.7082
getOutputStream	-11.7084
contacts	-11.7084
</	-11.7085
bo	-11.7086
▁getOrCreate	-11.7087
InitializedState	-11.709
LOADER	-11.709
El	-11.7091
Favorite	-11.7091
▁would	-11.7093
▁onTextChanged	-11.7093
▁onAnimation	-11.7093
▁onRestore	-11.7095
▁getContainer	-11.7096
BOD	-11.7097
▁MessageDigest	-11.7097
Urls	-11.7097
Insn	-11.7099
Std	-11.7099
Measure	-11.71
snapshot	-11.7102
Banner	-11.7104
StateAfterReset	-11.7104
STACK	-11.7104
▁entityType	-11.7105
Gravity	-11.7105
NAMESPACE	-11.7106
Pixel	-11.7107
▁border	-11.7108
ous	-11.7109
▁projectId	-11.7112
▁channels	-11.7116
Markers	-11.7117
Sessions	-11.7117
▁queryString	-11.7123
IllegalState	-11.7125
▁mappings	-11.7126
getBean	-11.7128
parseBoolean	-11.7135
▁common	-11.7136
Confidence	-11.7137
▁notifier	-11.7138
▁getChannel	-11.7139
Enabler	-11.714
▁parameterTypes	-11.7141
▁clock	-11.7142
▁own	-11.7142
▁mHeader	-11.7143
Dragging	-11.7145
▁mPopup	-11.7148
AttachedToWindow	-11.7148
OutputFile	-11.7149
▁getTimestamp	-11.7151
Mapped	-11.7152
SipProfile	-11.7153
ae	-11.7153
Identifiers	-11.7155
CSV	-11.7157
Mismatch	-11.7157
▁gateway	-11.7158
att	-11.7159
TH	-11.716
override	-11.7171
Minute	-11.7173
ResultCode	-11.7173
▁tail	-11.7174
Preferred	-11.7175
▁PhoneConstant	-11.7175
Pa	-11.7176
putParcelable	-11.7177
▁logging	-11.7179
▁getDocument	-11.7181
▁mLabel	-11.7181
Directories	-11.7181
Markup	-11.7181
IsMutable	-11.7184
▁callId	-11.7184
EntityManager	-11.7185
▁uses	-11.7187
loadClass	-11.7188
▁mCi	-11.7191
▁keyStore	-11.7192
INTERNAL	-11.7192
▁AND	-11.7193
▁getWindow	-11.7195
▁listen	-11.72
Redstone	-11.7203
▁operations	-11.7203
▁currentTime	-11.7204
convertView	-11.7206
▁handled	-11.7209
▁mute	-11.7212
▁isConnected	-11.7212
Abort	-11.7214
Pojo	-11.7214
SORT	-11.7215
▁provided	-11.7217
Dial	-11.7218
▁Run	-11.7224
Paragraph	-11.7225
NaN	-11.7227
▁overlay	-11.7229
running	-11.723
ObjectName	-11.7235
▁inv	-11.7236
ENTR	-11.7237
Magic	-11.7239
▁related	-11.724
▁mFolder	-11.724
▁Transport	-11.7243
extensions	-11.7244
Buckets	-11.725
▁lon	-11.7252
getToken	-11.7252
▁childCount	-11.7255
▁Dummy	-11.7255
disabled	-11.7256
▁authorization	-11.7256
ObjectMapper	-11.7256
parameterIndex	-11.7257
looper	-11.7258
▁mSettings	-11.7263
▁Sql	-11.7264
▁mRequest	-11.7265
▁pc	-11.7266
▁Signature	-11.7268
▁health	-11.7269
Agreement	-11.727
▁dot	-11.7273
▁Edm	-11.7279
getValues	-11.7281
▁mOriginal	-11.7281
▁closing	-11.7283
kit	-11.7288
converter	-11.7288
TypeReference	-11.7289
ualified	-11.729
WakeLock	-11.7291
▁relation	-11.7291
▁objectMapper	-11.7292
ContactsProvider	-11.7296
members	-11.7296
Sig	-11.7297
yes	-11.7297
▁setVersion	-11.7302
▁setActive	-11.7303
paymentchannel	-11.7304
nanoTime	-11.7305
PreferenceClick	-11.7308
SocketAddress	-11.7309
▁let	-11.7309
▁Meta	-11.7311
▁mListView	-11.7312
▁Post	-11.7314
Bank	-11.7316
der	-11.732
redirect	-11.7321
SOLO	-11.7322
▁TreeSet	-11.7322
getInput	-11.7323
Handles	-11.7323
INSERT	-11.7325
getStackTrace	-11.7326
VDBG	-11.7326
▁pages	-11.7327
▁resolveInfo	-11.733
setContentType	-11.7332
HOUR	-11.7333
Pan	-11.7334
Advance	-11.7339
Sorter	-11.7341
▁ticket	-11.7341
Provides	-11.7344
Templates	-11.7345
getSuperclass	-11.7345
▁Widget	-11.7346
isFinishing	-11.7348
▁buttonView	-11.7349
cql	-11.7349
▁cost	-11.735
IncomingCall	-11.7351
getByName	-11.7352
getHeaders	-11.7352
▁dummy	-11.7358
REMOVE	-11.7358
▁onAttach	-11.7359
DOMAIN	-11.7359
▁SceneMode	-11.7359
TextComponent	-11.7362
Assumption	-11.7362
rotate	-11.7363
▁btClass	-11.7365
▁tests	-11.737
PowerManager	-11.7372
incompatible	-11.7375
DIS	-11.7376
▁getLength	-11.7383
▁cipher	-11.7386
ast	-11.7389
▁getAttributes	-11.7389
▁PictureSize	-11.7393
xdr	-11.7395
Notice	-11.7395
▁biome	-11.7403
▁mPosition	-11.7404
▁Cell	-11.7407
▁rename	-11.7408
▁classpath	-11.7408
▁EnumSet	-11.7411
Telephony	-11.7415
PairwiseScenario	-11.7416
▁IIcon	-11.7419
FluentWebElement	-11.7422
▁acl	-11.7423
▁dateTime	-11.7425
tion	-11.7426
UL	-11.7427
▁It	-11.7431
▁WhiteBalance	-11.7433
▁mShow	-11.7434
onClick	-11.7435
peg	-11.7436
▁getSchema	-11.7437
OrderBy	-11.7438
course	-11.7438
Enchantment	-11.7438
getUsername	-11.7441
concept	-11.7444
▁writeString	-11.7447
People	-11.7447
Maven	-11.7448
Requires	-11.7451
▁Clear	-11.7453
Turn	-11.7453
Dev	-11.7455
her	-11.7455
▁failures	-11.7458
Importer	-11.7461
offer	-11.7463
AdapterFactory	-11.7463
sendBroadcast	-11.7464
Models	-11.7465
▁mStateMachine	-11.7468
Either	-11.7468
(":")	-11.7469
Apn	-11.7472
▁course	-11.7472
errorCode	-11.7477
SensorDataSet	-11.748
transfer	-11.7482
▁TE	-11.7485
▁greater	-11.7485
Closing	-11.7488
lon	-11.7489
Subtypes	-11.7491
ItemInfo	-11.7492
NodeId	-11.7492
sin	-11.7495
LARGE	-11.7497
▁dataId	-11.7497
NodeType	-11.7499
BusinessObject	-11.7499
ver	-11.7501
▁colors	-11.7502
Refactoring	-11.7505
direct	-11.7507
mms	-11.7509
▁Route	-11.751
▁getAccount	-11.751
getExtras	-11.7513
Provided	-11.7517
Occurrence	-11.7518
STOPPED	-11.7518
seconds	-11.7519
▁nodeId	-11.7519
▁compression	-11.7524
Lists	-11.7525
ooKeeper	-11.7526
ai	-11.7526
toURI	-11.7527
ContextMenuInfo	-11.7529
▁addListener	-11.7529
Corner	-11.7529
▁did	-11.753
▁warn	-11.7532
tones	-11.7534
▁bytesRead	-11.7534
▁Google	-11.7534
▁steps	-11.7539
pb	-11.7539
Ontology	-11.7541
Ordinal	-11.7542
▁Exposure	-11.7543
▁statistics	-11.7544
▁getPrefix	-11.7544
TT	-11.7548
▁Lazy	-11.7548
▁dim	-11.755
DataSetObserver	-11.7554
abc	-11.7555
getOwner	-11.7556
▁mNetwork	-11.7556
▁DataInputStream	-11.7558
▁SeekBar	-11.7559
En	-11.7559
▁keyType	-11.7562
LINK	-11.7565
findAll	-11.7565
PrintStream	-11.7566
▁actionBar	-11.7567
SessionFactory	-11.757
▁asset	-11.7571
removeView	-11.7571
▁Rational	-11.7572
Song	-11.7575
▁defaults	-11.7577
points	-11.7578
AppId	-11.7578
WA	-11.7579
▁1))	-11.7581
▁Nested	-11.7581
getURI	-11.7582
pk	-11.7583
1:	-11.7585
Retries	-11.7586
lv	-11.7586
SUFFI	-11.7587
ueryService	-11.7588
Conditional	-11.7588
Closeable	-11.7589
▁best	-11.7589
resourceId	-11.7591
MODEL	-11.7592
getMenuInflater	-11.7598
preview	-11.7599
▁modules	-11.7599
Regions	-11.7601
Gain	-11.7601
ProcessInstance	-11.7602
▁userAgent	-11.7606
▁thing	-11.7606
SIP	-11.7608
▁example	-11.7608
Vendor	-11.7609
▁Extended	-11.761
startService	-11.7613
▁onClose	-11.7615
▁wallet	-11.7615
▁ExifTag	-11.7616
▁Auth	-11.7618
TIMESTAMP	-11.7621
▁getPriority	-11.7622
▁ast	-11.7622
Spacing	-11.7624
InputFormat	-11.7624
Attendees	-11.7628
px	-11.7629
Concurrent	-11.7629
ServiceResponse	-11.7631
Front	-11.7632
ord	-11.7637
▁Subscription	-11.7638
Passed	-11.7639
▁componentName	-11.7644
▁Templates	-11.7645
▁inputs	-11.7652
▁slice	-11.7655
LocalDate	-11.7659
▁getRemote	-11.7659
▁cmp	-11.7661
▁Stop	-11.7661
Warnings	-11.7663
▁mEqualizer	-11.7663
payments	-11.7664
▁relationship	-11.7664
▁setSource	-11.7664
Compile	-11.7665
authority	-11.7665
perm	-11.7665
roll	-11.7665
▁instrumentation	-11.7667
ind	-11.7667
MessageSize	-11.7667
isEqualTo	-11.7668
activityInfo	-11.7669
▁desired	-11.767
SearchMode	-11.7671
RequestBody	-11.7673
▁Avro	-11.7673
▁CoreException	-11.7675
some	-11.7676
ComboBox	-11.7676
▁interfaces	-11.7677
▁clientIf	-11.7679
▁red	-11.7683
SipPhone	-11.7686
▁ApplicationInfo	-11.7689
▁getLoader	-11.7693
Applications	-11.7695
Documents	-11.7695
HS	-11.7695
Sleep	-11.7696
PrintWriter	-11.77
▁fluid	-11.7701
▁Minecraft	-11.7702
Epoch	-11.7702
CANCEL	-11.7702
SCHEME	-11.7703
dataset	-11.7703
▁Patient	-11.7703
▁10,	-11.7703
Effects	-11.7706
▁sz	-11.7707
▁deployment	-11.7709
Man	-11.7713
messageId	-11.7714
addView	-11.7715
missing	-11.7717
Nid	-11.7717
getWriter	-11.7718
▁operand	-11.772
MethodName	-11.7721
contactId	-11.7721
Mongo	-11.7722
getMap	-11.7724
analysis	-11.7726
▁Illegal	-11.7732
BR	-11.7733
▁subtype	-11.7735
Once	-11.7736
Validity	-11.7737
▁mMap	-11.774
▁getParameters	-11.7743
mf	-11.7743
Align	-11.7745
▁getAnnotation	-11.7745
▁ERROR	-11.7745
_0(	-11.7746
▁ContentProvider	-11.7746
▁getListView	-11.7747
Spring	-11.7748
Statements	-11.7749
catalog	-11.7751
▁threads	-11.7751
▁whichButton	-11.7755
func	-11.7763
mute	-11.7763
▁mColor	-11.7764
alarm	-11.7764
tu	-11.7765
serv	-11.7765
▁setColor	-11.7769
CE	-11.7769
cas	-11.7769
▁Rest	-11.7772
▁Region	-11.7773
▁hostName	-11.7773
Topology	-11.7774
platform	-11.7776
▁degrees	-11.7777
▁featureID	-11.7778
▁END	-11.7778
Claim	-11.7779
LO	-11.7781
▁between	-11.7784
strings	-11.7787
realtime	-11.7787
Keyframe	-11.7787
ElementTime	-11.7789
ROW	-11.7795
Colour	-11.7796
▁ready	-11.7797
dis	-11.7797
TagCompound	-11.7799
▁TestUtils	-11.7805
pointer	-11.7806
preferences	-11.7806
RT	-11.7808
▁getBy	-11.781
PID	-11.781
Overflow	-11.7812
RadioButton	-11.7818
Avatar	-11.782
Attach	-11.782
▁mDrag	-11.782
Minor	-11.7822
BAR	-11.7828
▁Duration	-11.7829
▁Platform	-11.783
Creating	-11.7832
▁ModelAndView	-11.7832
PROPERTIES	-11.7832
Certs	-11.7836
StreamType	-11.7837
▁mFirst	-11.7838
▁ec	-11.7839
Sonar	-11.7839
Cohort	-11.7841
modified	-11.7841
▁addAll	-11.7843
afterTextChanged	-11.7844
▁vals	-11.7845
Big	-11.7849
[]{"	-11.7849
▁HttpURL	-11.785
was	-11.7851
▁creator	-11.7852
Annotated	-11.7854
DropTarget	-11.7855
ln	-11.7856
ENTER	-11.7858
land	-11.7859
Checks	-11.7865
AccessException	-11.7865
▁even	-11.7869
▁Craft	-11.787
backup	-11.787
▁icons	-11.7877
COMPLETE	-11.7877
Ignored	-11.788
▁blockSize	-11.788
▁peek	-11.7881
Vocab	-11.7884
RC	-11.7887
▁Save	-11.7888
ElementType	-11.789
TrustManager	-11.7891
uptimeMillis	-11.7891
ContactId	-11.7892
Mini	-11.7898
▁ASTNode	-11.7898
▁advance	-11.7901
ena	-11.7902
sqrt	-11.7902
lhs	-11.7908
▁Launcher	-11.7909
▁your	-11.7914
BaseUrl	-11.7914
Cells	-11.7917
Localized	-11.7919
PARAMETER	-11.792
▁Authorization	-11.7921
ACL	-11.7923
▁deviceId	-11.7926
Datatype	-11.7926
▁getDisplay	-11.7926
retry	-11.7928
backend	-11.7929
"};	-11.793
▁Utility	-11.7933
Ptr	-11.7933
OID	-11.7933
PreviewCallback	-11.7934
2];	-11.7936
dev	-11.7938
Hadoop	-11.7939
Leader	-11.7939
▁mId	-11.7942
helper	-11.7943
ObjectProperty	-11.7945
]");	-11.7947
▁ContactList	-11.7947
(200	-11.7948
▁"["	-11.795
▁qb	-11.795
severe	-11.795
IntArray	-11.7957
▁getBody	-11.7958
removeListener	-11.7959
Canceled	-11.7961
validator	-11.7961
FLOAT	-11.7962
Vars	-11.7963
▁0.0;	-11.7964
▁dc	-11.7965
▁playPausebutton	-11.7965
▁isSelected	-11.7968
addLast	-11.7972
getProvider	-11.7975
Installed	-11.7976
▁Reset	-11.7977
DragObject	-11.7979
▁mThread	-11.7982
contents	-11.7983
▁setSize	-11.7983
▁measure	-11.7984
Bx	-11.7984
▁mActive	-11.7984
Calc	-11.7987
InMillis	-11.7987
▁en	-11.7989
"",	-11.7989
extras	-11.799
normal	-11.7995
▁Release	-11.7996
FieldBuilder	-11.7996
eventType	-11.7997
Accepted	-11.7997
▁getCustom	-11.7997
setStyle	-11.8
Artist	-11.8001
▁authenticated	-11.8001
▁setTime	-11.8002
Checkable	-11.8004
Levels	-11.8004
ClientException	-11.8004
setInteger	-11.8006
oveToPosition	-11.8009
▁getB	-11.801
hold	-11.801
▁special	-11.8011
Incorrect	-11.8012
Possible	-11.8012
Org	-11.8014
setArguments	-11.8015
Rev	-11.8015
▁VM	-11.8016
timezone	-11.8017
Al	-11.8019
▁maxWidth	-11.802
fp	-11.8021
▁Dictionary	-11.8022
getExtension	-11.8022
▁onMenuItemClick	-11.8022
getAs	-11.8024
FailedException	-11.8024
peer	-11.8024
Attendee	-11.8028
▁Chunk	-11.8029
▁structure	-11.8031
▁DexReader	-11.8034
())));	-11.8035
▁Spring	-11.8037
▁LinearLayout	-11.8037
added	-11.8039
Leaf	-11.8039
▁subscribe	-11.8039
Authenticated	-11.804
Avro	-11.8041
▁categories	-11.8042
OPTIONS	-11.8043
scanpos	-11.8049
ti	-11.8049
alloc	-11.805
MOD	-11.8053
▁hidden	-11.8055
Refund	-11.8057
▁Conversation	-11.8057
none	-11.8058
seekTo	-11.8058
Offsets	-11.8064
ALLOW	-11.8064
RenderScript	-11.8065
▁numbers	-11.8065
▁hasFocus	-11.8066
▁mTabs	-11.807
▁LinkedHashSet	-11.8074
▁indices	-11.8074
StringBuffer	-11.8074
▁bool	-11.8075
vel	-11.8076
▁maxLength	-11.8079
UnderTest	-11.8081
▁CSV	-11.8081
Software	-11.8083
▁modifier	-11.8083
Shuffle	-11.8083
Partitions	-11.8083
getLevel	-11.8086
Thing	-11.8086
states	-11.8087
RetryPolicy	-11.8087
DataFile	-11.8088
▁aggregator	-11.8088
▁assignment	-11.8091
loneNotSupported	-11.8091
yteArrayToShort	-11.8092
▁START	-11.8093
getPassword	-11.8094
emptySet	-11.8095
iz	-11.8096
onConfiguration	-11.8096
ft	-11.8098
▁checkFor	-11.8103
▁ChatColor	-11.8104
▁metaData	-11.8104
INTEGER	-11.8105
shell	-11.8107
setTranslation	-11.8109
▁dataType	-11.811
ServerSocket	-11.8112
▁objectId	-11.8112
▁variant	-11.8113
izing	-11.8114
iterations	-11.8116
Got	-11.8117
▁Return	-11.8118
▁enc	-11.8121
▁Constructor	-11.8121
▁selfChange	-11.8122
ClientConfig	-11.8123
emit	-11.8128
Pie	-11.813
speed	-11.8131
(".")	-11.8132
▁mTab	-11.8132
Inactive	-11.8135
getEntry	-11.8136
▁UserInfo	-11.8136
▁creating	-11.8136
▁camunda	-11.8141
dimen	-11.8142
▁thumb	-11.8145
pw	-11.8147
essibilityEvent	-11.8148
Scm	-11.8148
balance	-11.8149
▁ttl	-11.8149
shortcut	-11.8151
ToBytes	-11.8151
NameValuePair	-11.8153
proc	-11.8157
Scalar	-11.8157
PluginManager	-11.8158
SCO	-11.8159
Monitoring	-11.8159
getMethodName	-11.8161
▁getNumber	-11.8165
LastModified	-11.8166
Sh	-11.8169
getTop	-11.817
FRE	-11.8171
▁Import	-11.8173
PropertyValue	-11.8178
Temporal	-11.8179
POINT	-11.8179
▁Sort	-11.8179
▁See	-11.8181
DTMF	-11.8181
▁mWakeLock	-11.8182
▁ve	-11.8186
▁were	-11.8186
browser	-11.8186
WT	-11.8187
▁vol	-11.8188
Outbound	-11.8191
NameSpace	-11.8192
Design	-11.8192
▁conversation	-11.8197
setDescription	-11.8198
validation	-11.8199
BElement	-11.82
watch	-11.8201
Cli	-11.8201
▁mMode	-11.8202
▁partial	-11.8203
▁onMessage	-11.8204
▁dt	-11.8207
REPORT	-11.8208
logging	-11.8209
▁byteArrayToInt	-11.8217
RingerMode	-11.8217
ferenceTreeClick	-11.8218
▁setHeader	-11.8218
tt	-11.8219
radius	-11.8221
▁getting	-11.8221
Couldn	-11.8225
dot	-11.8228
▁chat	-11.8228
Partner	-11.8229
onedDateTime	-11.823
outputStream	-11.8231
Closure	-11.8234
SecurityManager	-11.8235
▁100)	-11.8236
▁fi	-11.8239
fi	-11.8246
fieldId	-11.8247
patient	-11.8252
▁Instrumentation	-11.8253
▁entitySetName	-11.8253
registerA	-11.8253
Fit	-11.8254
cv	-11.8254
▁nullable	-11.8256
▁indexOf	-11.8256
▁DataSource	-11.8257
bug	-11.8258
▁kp	-11.8258
▁Inventory	-11.8259
pipeline	-11.8261
ump	-11.8265
paint	-11.8268
readLock	-11.8268
Stopping	-11.8271
Modifiers	-11.8272
Whitelist	-11.8274
Gauge	-11.8278
▁contacts	-11.8278
FileInfo	-11.8279
▁bos	-11.828
Reports	-11.8282
Bg	-11.8282
Subtitle	-11.8284
▁BlockFace	-11.8284
▁Named	-11.8287
▁tokenType	-11.8289
SyncAdapter	-11.829
Spaces	-11.8295
="+	-11.8296
UNIT	-11.8298
▁EventType	-11.83
Buffered	-11.83
Segments	-11.8304
FP	-11.8305
Within	-11.8306
clientId	-11.8306
writeLock	-11.8308
Activated	-11.8308
deleted	-11.8309
Haxe	-11.8311
▁problem	-11.8311
▁animator	-11.8312
ServiceProvider	-11.8313
▁getFloat	-11.8314
▁comments	-11.8314
Contributor	-11.8315
▁mPreview	-11.8318
Fs	-11.8321
serializer	-11.8322
utf	-11.8325
Formats	-11.8326
Atdl	-11.8329
Logical	-11.833
su	-11.8333
TopLevel	-11.8335
▁sym	-11.8335
getE	-11.8337
chat	-11.8338
Parents	-11.834
Screenshot	-11.834
Hold	-11.8348
▁mType	-11.8348
Union	-11.835
Concrete	-11.8352
setResult	-11.8352
getRaw	-11.8353
fx	-11.8354
Iso	-11.8354
biome	-11.8354
connected	-11.8359
Interfaces	-11.836
▁bufferSize	-11.8361
Paused	-11.8368
newHashSet	-11.8369
Interrupt	-11.8372
getLanguage	-11.8372
RowId	-11.8375
Dialer	-11.8378
▁clip	-11.8379
Checking	-11.8379
grpc	-11.838
▁setAttribute	-11.8381
▁mProfileManager	-11.8381
▁completion	-11.8382
MC	-11.8383
▁mBitmap	-11.8386
InstanceContext	-11.8386
InputSplit	-11.8387
renderer	-11.839
▁setFilter	-11.8392
high	-11.8393
▁getAction	-11.8394
jobId	-11.8395
ByType	-11.8397
▁words	-11.8398
▁Global	-11.8398
▁Concept	-11.8398
CEPTION	-11.8398
▁article	-11.8399
▁getV	-11.84
▁sa	-11.8402
getWorkspace	-11.8402
Lens	-11.8403
▁Study	-11.8404
▁onUpdate	-11.8404
▁fraction	-11.8406
mMediaController	-11.8408
▁mc	-11.8408
Grouping	-11.8408
▁Window	-11.841
RATE	-11.8413
pass	-11.8414
deploy	-11.8418
DatePicker	-11.8419
DL	-11.842
ProviderStatus	-11.8421
exchange	-11.8423
fm	-11.8425
▁StringReader	-11.8426
definition	-11.8427
▁rsp	-11.8433
ado	-11.8433
Tester	-11.8434
HostBean	-11.8435
ible	-11.8438
Routes	-11.8439
▁modifiers	-11.8439
phoenix	-11.844
setMediaPlayerTo	-11.844
StateAfterStop	-11.844
Excluded	-11.844
▁prevent	-11.8441
▁testMP	-11.8442
▁setContent	-11.8445
seek	-11.8448
Ordering	-11.8449
▁mNew	-11.8451
Species	-11.8451
Calling	-11.8451
▁connId	-11.8454
▁getRow	-11.8455
COMPLETED	-11.8455
Sol	-11.8457
Browse	-11.8458
UnknownFields	-11.8459
TTL	-11.846
claim	-11.8462
▁Workflow	-11.8463
▁getEncoded	-11.8464
getLocale	-11.8464
Commodity	-11.8465
DOCUMENT	-11.8465
VCard	-11.8466
▁th	-11.8466
copyFrom	-11.8466
▁shown	-11.8467
DownloadManager	-11.8467
RequestType	-11.8468
BE	-11.8469
SETTING	-11.8471
▁opts	-11.8476
CallDetails	-11.848
AsList	-11.8483
ICC	-11.8484
▁Alarm	-11.8486
RANGE	-11.849
Lower	-11.849
UserProfile	-11.849
Disposition	-11.8492
Skill	-11.8493
archive	-11.8494
▁itemstack	-11.8496
anchor	-11.8498
Tmp	-11.8499
dy	-11.85
Recipes	-11.8501
ng	-11.8502
ea	-11.8502
▁getPayload	-11.8503
getItemDamage	-11.8504
▁addPreferences	-11.8507
TextColor	-11.8509
▁inside	-11.851
▁UnsupportedE	-11.851
Own	-11.851
REST	-11.8511
LOGGER	-11.8512
Writing	-11.8515
OPERATION	-11.8515
WIFI	-11.8515
PduHeaders	-11.8516
FrameLayout	-11.8517
▁Read	-11.8517
ake	-11.8517
▁cnt	-11.852
mPhone	-11.852
console	-11.8524
getSub	-11.8526
ToInt	-11.8527
Dependent	-11.8527
RawContactId	-11.8528
NameNotFound	-11.853
Spans	-11.8531
▁getLayout	-11.8531
▁mN	-11.8533
▁mNum	-11.8535
Mo	-11.8537
haxe	-11.8538
ShortcutInfo	-11.8539
TaskId	-11.8541
getTimestamp	-11.8542
taskId	-11.8542
▁might	-11.8545
▁dur	-11.8546
Major	-11.8549
▁Identity	-11.8549
▁myFixture	-11.855
gp	-11.8553
▁Persistence	-11.8558
Privilege	-11.8559
bad	-11.856
Car	-11.8564
▁basic	-11.8564
fluid	-11.8565
Specs	-11.8566
city	-11.8567
character	-11.8568
DISABLED	-11.8568
▁positive	-11.857
Pet	-11.857
xpath	-11.8571
▁connections	-11.8571
▁getRegisterA	-11.8572
▁negative	-11.8573
:"+	-11.8576
readShort	-11.8577
▁Activator	-11.8578
PRESENTATION	-11.8579
Degree	-11.858
getUniqueId	-11.8582
▁counters	-11.8587
kv	-11.8587
▁Scanner	-11.8587
isTrue	-11.8588
▁IModel	-11.8589
BOOLEAN	-11.8591
Smart	-11.8592
▁vars	-11.8595
CASE	-11.8596
▁setUrl	-11.8597
Always	-11.8599
▁transformation	-11.8599
Included	-11.86
BluetoothA	-11.8601
▁RecyclerView	-11.8603
Attrib	-11.8603
Expressions	-11.8604
▁playerName	-11.8605
DSL	-11.8606
ListFragment	-11.8606
dom	-11.8607
exclude	-11.8609
receive	-11.8613
REF	-11.8615
OTHER	-11.8617
Par	-11.8622
Scoped	-11.8623
▁dial	-11.8625
ash	-11.8627
LIGHT	-11.863
[1],	-11.8631
MyTracksProvider	-11.8631
Rational	-11.8633
LayoutManager	-11.8634
sax	-11.8634
dim	-11.8638
0");	-11.8639
▁extended	-11.8641
Treatment	-11.8642
setBounds	-11.8642
Meeting	-11.8642
NEGATIVE	-11.8642
▁Console	-11.8643
stmt	-11.8643
▁ipAddress	-11.8645
▁Hashtable	-11.8646
▁yy	-11.865
▁modIntent	-11.8651
▁secondary	-11.8651
DataModel	-11.8654
▁MediaRecorder	-11.8655
▁mImage	-11.8656
Inside	-11.8661
Absolute	-11.8664
CommandContext	-11.8667
▁setShow	-11.8673
▁Messages	-11.8674
mMediaPlayer	-11.8675
PV	-11.8675
▁tooltip	-11.8677
ele	-11.8678
advanced	-11.8679
Regular	-11.8679
▁purge	-11.868
▁pipe	-11.8681
Psi	-11.8682
Returns	-11.8684
Tape	-11.8684
registration	-11.8687
▁Core	-11.8693
▁severity	-11.8693
setParent	-11.8694
ValuesDelta	-11.8694
▁mIndex	-11.8696
vertex	-11.8698
StressTest	-11.8698
groupName	-11.8702
mSelected	-11.8702
caret	-11.8702
isRunning	-11.8706
wc	-11.8706
getInventory	-11.8709
ga	-11.871
addTo	-11.8711
getValueType	-11.8714
▁conversion	-11.8714
ColumnType	-11.8717
Underlying	-11.8719
FORCE	-11.8722
nu	-11.8727
incoming	-11.8728
capture	-11.8728
getDeclared	-11.873
sys	-11.8734
▁typeDesc	-11.8736
indices	-11.8736
MULTI	-11.8737
ial	-11.8741
▁disk	-11.8745
INFINIT	-11.8745
nio	-11.8751
valueBuf	-11.8751
cipientChannelID	-11.8754
frequency	-11.8756
EM	-11.8758
uit	-11.8759
▁currentPosition	-11.876
arity	-11.8761
▁singleton	-11.8761
onTouchEvent	-11.8761
getTotal	-11.8761
ResultHandler	-11.8761
▁BufferedImage	-11.8764
Chunks	-11.8765
Portlet	-11.8765
GE	-11.8765
▁EClass	-11.8766
▁columnNames	-11.8767
▁suggestions	-11.8767
Letter	-11.8768
rank	-11.8771
Vault	-11.8771
fixed	-11.8774
py	-11.8775
Os	-11.8777
Editing	-11.878
sol	-11.8782
LearningActivity	-11.8783
AVA	-11.8785
sInstance	-11.8785
BeanFactory	-11.8785
▁unregisterFor	-11.8786
uickContact	-11.8787
itr	-11.8788
plus	-11.8789
soap	-11.8791
▁Parcelable	-11.8794
asString	-11.8795
Unicode	-11.8796
delimiter	-11.8797
appendChild	-11.8797
Sorting	-11.8799
▁rt	-11.8801
▁getSignature	-11.8801
FileChooser	-11.8802
▁getContentType	-11.8802
stage	-11.8803
FA	-11.8804
SLT	-11.8806
▁salt	-11.8807
Localization	-11.8809
Pdf	-11.8812
struct	-11.8813
▁proto	-11.8813
Act	-11.8815
air	-11.8816
KV	-11.8816
entities	-11.8817
TaggedObject	-11.8817
Seek	-11.8822
▁ModeratorUrl	-11.8823
transition	-11.8824
▁setAlpha	-11.8827
getConstructor	-11.8828
rhs	-11.8828
Vis	-11.883
Serialize	-11.8831
instanceContext	-11.8833
FocusListener	-11.8834
listIterator	-11.8834
MR	-11.8834
mAudioHandler	-11.8835
AlarmManager	-11.8839
▁shouldn	-11.8844
trackId	-11.8845
ValueType	-11.8845
ForTesting	-11.8846
TA	-11.885
▁Sig	-11.8854
1/	-11.8856
▁devices	-11.8857
isAvailable	-11.8858
wtf	-11.8859
roles	-11.886
▁getCode	-11.8861
CT	-11.8861
CipherSuites	-11.8862
unmodifiableSet	-11.8866
readBoolean	-11.8868
Reminder	-11.887
Pom	-11.887
▁fake	-11.8875
DefaultValue	-11.8876
While	-11.8876
Linked	-11.8879
▁absolute	-11.8881
▁abstract	-11.8881
▁urls	-11.8884
another	-11.8885
AF	-11.8887
nr	-11.8887
Stylesheet	-11.8889
ITypeReference	-11.8889
clientIf	-11.889
2))	-11.8891
Dtmf	-11.8891
▁keyword	-11.8891
▁Write	-11.8893
writeShort	-11.8895
getRight	-11.8896
▁checkError	-11.8897
▁align	-11.8898
▁fc	-11.8899
▁cd	-11.8905
EFFECT	-11.8908
RO	-11.8908
PageSize	-11.891
std	-11.891
noinspection	-11.8915
DataInputStream	-11.8918
Processes	-11.8918
callbacks	-11.8922
Collect	-11.8923
▁price	-11.8923
▁voice	-11.8923
Unused	-11.8924
bukkit	-11.8925
newHashMap	-11.8926
▁Hadoop	-11.8927
getA	-11.8928
pn	-11.8929
Statuses	-11.893
Nanos	-11.8932
UiccCard	-11.8932
▁aid	-11.8936
AccountHandle	-11.8938
compress	-11.8938
Deposit	-11.8941
▁RawContact	-11.8941
Ancestor	-11.8941
strip	-11.8941
Sentence	-11.8942
CallerInfo	-11.8943
ceil	-11.8943
Seen	-11.8946
organization	-11.8947
▁precision	-11.8948
Configurations	-11.8953
Oracle	-11.8953
Dashboard	-11.8954
▁ConcurrentHash	-11.8958
▁specific	-11.8964
Initialize	-11.8965
▁serialization	-11.8968
Dirs	-11.8969
LOADED	-11.897
▁getDatabase	-11.8974
performClick	-11.8975
▁Convert	-11.8977
▁FileReader	-11.8978
Subscriptions	-11.8979
▁1000)	-11.898
TripStatistics	-11.8981
("/"))	-11.8983
endDate	-11.8984
Warn	-11.8984
xCoord	-11.8986
inst	-11.8989
portable	-11.8992
sl	-11.8992
Wrapped	-11.8993
rd	-11.8998
▁ldap	-11.9009
▁pl	-11.901
ProcessEngine	-11.9012
Will	-11.9012
"")	-11.9013
▁Eas	-11.9015
▁rr	-11.9015
AccessorTable	-11.9016
Latest	-11.9018
setSize	-11.9018
Chosen	-11.9021
▁proc	-11.9021
getFirstChild	-11.9021
mTarget	-11.9022
▁dist	-11.9023
SensorState	-11.9024
▁died	-11.9025
HAS	-11.9026
Startup	-11.9029
getSchema	-11.9029
Moved	-11.903
avaType	-11.903
lower	-11.9031
AccountId	-11.9033
INFLATE	-11.9034
fast	-11.9035
mName	-11.9035
TerminatedEvent	-11.9037
▁behavior	-11.9039
LineNumber	-11.904
▁colIndex	-11.904
sonGenerator	-11.904
MINUTE	-11.904
SocketFactory	-11.9041
Confirmed	-11.9043
Take	-11.9043
ResponseMessage	-11.9046
Inst	-11.9047
▁indexes	-11.9048
Caret	-11.905
setLong	-11.905
PhoneticName	-11.905
we	-11.9052
ke	-11.9056
▁under	-11.9057
▁normalized	-11.9058
enum	-11.9058
▁phase	-11.9059
Degrees	-11.906
RULE	-11.9061
▁latest	-11.9061
▁unbind	-11.9062
onPrepare	-11.9064
shift	-11.9066
▁setDate	-11.9066
CONTACTS	-11.9068
▁mailboxId	-11.9069
unique	-11.9071
Recursive	-11.9073
▁getEmail	-11.9074
1-	-11.9075
Ingredient	-11.9076
▁accessor	-11.9076
SO	-11.908
▁tank	-11.9082
millis	-11.9086
mElement	-11.9086
Elevation	-11.9087
SCALE	-11.9087
getStringValue	-11.9088
connector	-11.9088
tv	-11.909
mLocalAdapter	-11.9091
Dragon	-11.9091
arn	-11.9093
▁repeat	-11.9094
Volatile	-11.9094
REPL	-11.9094
getFormat	-11.9095
▁hint	-11.9096
RestRep	-11.9101
derive	-11.9101
DESC	-11.9103
▁cameraId	-11.9104
▁ratio	-11.9109
▁(0	-11.9111
formatter	-11.9112
reply	-11.9113
getCursor	-11.9118
▁Persistent	-11.9118
▁fullName	-11.912
Daemon	-11.9121
Nano	-11.9122
quad	-11.9125
▁getAvailable	-11.9125
flatMap	-11.9125
lab	-11.9127
javax	-11.9129
Typeface	-11.9129
▁getRequired	-11.9131
DD	-11.9133
getPage	-11.9134
ja	-11.9135
NullPointer	-11.9138
Bytecode	-11.9139
arm	-11.9142
tableUri	-11.9146
Hi	-11.9149
subList	-11.915
Assembly	-11.9152
restart	-11.9153
Purchase	-11.9154
groupPosition	-11.9162
▁setPassword	-11.9165
▁removeListener	-11.9166
era	-11.9166
▁cap	-11.917
mType	-11.917
Research	-11.9171
playerName	-11.9173
▁tone	-11.9174
Ore	-11.9174
▁highlight	-11.9175
generator	-11.9176
Blocked	-11.9178
private	-11.9178
Story	-11.9181
Shader	-11.9181
▁anything	-11.9182
getAccount	-11.9186
CodeAddress	-11.9186
processing	-11.9189
▁mIntent	-11.919
comparator	-11.9191
HttpMethod	-11.9191
firstName	-11.9193
▁timezone	-11.9194
Compressor	-11.9195
LOW	-11.9196
▁DATABASE	-11.9196
bridge	-11.9196
▁byteArray	-11.9197
UNI	-11.9198
▁installed	-11.9199
▁ctxt	-11.92
▁blue	-11.92
writeValueAs	-11.9201
UserManager	-11.9203
▁translation	-11.9204
wk	-11.9206
▁//@	-11.9207
▁zzUnpack	-11.9208
▁encrypt	-11.921
widen	-11.921
Prev	-11.9211
egl	-11.9213
Nibble	-11.9215
▁hosts	-11.9216
sOf	-11.9216
Panorama	-11.9222
Pi	-11.9224
DragLayer	-11.9226
mRequest	-11.9227
FormField	-11.9228
▁trim	-11.9228
▁endChar	-11.9228
deflate	-11.9229
▁httpResponse	-11.923
getStringArray	-11.9232
LI	-11.9234
▁comparison	-11.9237
ect	-11.9237
▁sending	-11.9243
▁HttpStatus	-11.9246
▁Target	-11.9248
InputFile	-11.9249
nodeId	-11.9251
Sdk	-11.9252
band	-11.9253
▁xdr	-11.9254
BinaryDictionary	-11.9256
▁ContactListItem	-11.9258
Explicit	-11.9259
Protected	-11.9259
IMS	-11.926
mResult	-11.926
getProtocol	-11.9261
HttpURL	-11.9262
GroovySourceAST	-11.9263
sEnabled	-11.9263
▁finishTest	-11.9264
hex	-11.9264
▁SecureRandom	-11.9264
▁scheduled	-11.9267
newConfig	-11.9269
▁Loader	-11.9269
getDatabase	-11.9271
removed	-11.9273
▁httpRequest	-11.9274
ueued	-11.9274
FormData	-11.9276
Coordinator	-11.9276
payment	-11.9277
Placement	-11.9277
VideoCall	-11.9282
Soap	-11.9283
itemView	-11.9283
ISTS	-11.9284
loaded	-11.9286
received	-11.9287
▁tokenizer	-11.9287
▁setStart	-11.9295
Provisioning	-11.9295
onDestroyView	-11.9299
▁11	-11.93
Delimited	-11.9301
▁getF	-11.9301
Baseline	-11.9301
getLocalPort	-11.9302
Expires	-11.9302
SMALL	-11.9304
ular	-11.9307
▁getPlugin	-11.9307
ProviderInfo	-11.9309
▁assertParse	-11.9314
▁Directory	-11.9316
▁getApp	-11.9316
mission	-11.9316
GtfsRealtime	-11.9317
CallingIdentity	-11.9318
chars	-11.9318
▁persistent	-11.9319
▁manifest	-11.932
(){}	-11.9321
▁converted	-11.9321
▁concat	-11.9321
DisplayMetrics	-11.9322
RequestMessage	-11.9323
Pitch	-11.9323
mOn	-11.9326
mS	-11.9326
Badge	-11.9328
▁compile	-11.9329
VIBRATE	-11.9331
▁getOffset	-11.9332
▁certs	-11.9332
ServerSession	-11.9334
mIndex	-11.9334
UT	-11.9337
▁Static	-11.9339
AWS	-11.9341
mat	-11.9342
▁Socks	-11.9344
Implicit	-11.9345
UALIT	-11.9345
FTP	-11.9346
▁defStyleAttr	-11.9347
▁known	-11.9349
Adaptor	-11.9353
Spout	-11.9354
DEF	-11.9355
setPriority	-11.9359
▁based	-11.9361
▁writeObject	-11.9363
▁handleEvent	-11.9366
▁getProgress	-11.9369
UpdateListener	-11.937
WHITE	-11.9372
getFont	-11.9372
PLUGIN	-11.9372
▁mResult	-11.9373
▁otherwise	-11.9374
▁plot	-11.9374
openConnection	-11.9378
▁sourceFile	-11.9379
CSS	-11.9379
dn	-11.938
ticket	-11.938
ModelRenderer	-11.938
amp	-11.9386
getNew	-11.9389
bed	-11.9391
FL	-11.9394
ErrorHandler	-11.9397
assign	-11.9397
Showing	-11.9398
mResolver	-11.9399
BUNDLE	-11.94
hardware	-11.94
Inflater	-11.94
▁OS	-11.9401
Billing	-11.9402
▁onEvent	-11.9403
Redis	-11.9407
sn	-11.9407
▁publication	-11.9407
▁canonical	-11.9407
▁survey	-11.9408
▁codeAddress	-11.9408
Coding	-11.941
qName	-11.9411
Backpack	-11.9414
more	-11.9415
SHARED	-11.9415
Lon	-11.9416
setTextColor	-11.9418
▁getSummary	-11.9419
HEAD	-11.9419
/",	-11.942
▁getConfigured	-11.9424
esh	-11.9425
compareAndSet	-11.9428
▁InitialContext	-11.943
▁getFrom	-11.9431
ship	-11.9432
Heading	-11.9433
▁csv	-11.9435
strategy	-11.9437
getFileName	-11.9439
HeaderView	-11.9439
PotionEffect	-11.9443
▁rawValue	-11.9443
EE	-11.9445
▁onGet	-11.9446
CM	-11.9447
deviceName	-11.9449
▁getLink	-11.945
▁outputs	-11.9454
Desktop	-11.9455
LANGUAGE	-11.9455
Offering	-11.9456
ReturnValue	-11.9457
Minimum	-11.9457
▁objectName	-11.9459
▁isSeek	-11.946
AspectRatio	-11.946
▁wizard	-11.9461
▁expanded	-11.9461
jcas	-11.9461
Rollback	-11.9462
BucketName	-11.9463
▁Waypoint	-11.9463
thumbnail	-11.9467
Outputs	-11.9467
▁modelRenderer	-11.9469
Probability	-11.9469
▁composite	-11.9471
("{}	-11.9479
mac	-11.9481
TERNAL	-11.9482
▁sendMsg	-11.9482
myTracksProvider	-11.9483
REGION	-11.9483
DisconnectCause	-11.9483
pg	-11.9484
▁att	-11.9485
Sampler	-11.9486
Technology	-11.9486
▁crc	-11.9486
▁mA	-11.949
face	-11.9492
▁systemId	-11.9492
ObjectType	-11.9492
▁updates	-11.9495
ForUser	-11.9496
▁setInput	-11.9496
Ssh	-11.9496
scanner	-11.9496
keyStore	-11.95
Gsm	-11.9501
Mix	-11.9502
▁findAll	-11.9504
▁isFirst	-11.9505
ActivityIntent	-11.9506
Loss	-11.9508
Inserted	-11.9509
ELEM	-11.9509
rimbit	-11.9511
absent	-11.9513
▁getUpdate	-11.9514
▁CallState	-11.9516
Released	-11.952
▁mapped	-11.9521
▁expiration	-11.9525
VOICE	-11.9525
▁NUM	-11.9525
sonCreator	-11.9526
componentName	-11.9527
ratorExpression	-11.9527
ain	-11.9528
STARTED	-11.9528
▁getTransaction	-11.9529
▁getG	-11.9532
Artifacts	-11.9534
▁SEND	-11.9535
TextArea	-11.9536
Aggregated	-11.9537
ten	-11.9537
CommandException	-11.9538
UE	-11.9539
Timing	-11.9539
stylesheet	-11.954
nested	-11.9541
Dockable	-11.9543
TypeCode	-11.9545
Resume	-11.9545
▁progressDialog	-11.9546
COUNTR	-11.9547
hour	-11.9548
▁updateView	-11.9549
▁rm	-11.955
TokenTypes	-11.9551
▁mPin	-11.9552
posed	-11.9553
▁Sync	-11.9555
OnScreen	-11.9556
▁findByThriftId	-11.9556
readOnly	-11.9557
▁itemCount	-11.9559
▁compress	-11.956
▁outputFile	-11.956
onSuccess	-11.9561
▁fr	-11.9561
unable	-11.9562
Signer	-11.9562
_1(	-11.9562
Invalidate	-11.9563
Communication	-11.9567
Ignoring	-11.9567
ByKey	-11.9567
▁ByteBuf	-11.957
stub	-11.9571
Protocols	-11.9572
SAML	-11.9572
Hub	-11.9572
Proc	-11.9574
▁publisher	-11.9575
Hdfs	-11.9576
(10,	-11.9577
Accessible	-11.9577
SubscribeEvent	-11.9578
▁ask	-11.9578
chart	-11.9581
ColumnFamily	-11.9582
deleteDirectory	-11.9584
▁InputMethod	-11.9584
dial	-11.9584
ActivityInfo	-11.9586
▁BlockState	-11.9588
▁sep	-11.9592
keyboard	-11.9594
▁waypoint	-11.9595
Tail	-11.9597
writeToNBT	-11.9601
Matched	-11.9601
▁dayOfMonth	-11.9602
(100);	-11.9606
fr	-11.9607
trusted	-11.9608
KeyCode	-11.9608
▁VisADException	-11.9609
setUrl	-11.9609
getPos	-11.9609
contactUri	-11.9611
models	-11.9612
SerializedSize	-11.9612
▁serverIf	-11.9612
▁TestResult	-11.9612
inc	-11.9612
Tones	-11.9612
unmodifiableMap	-11.9615
▁ContentType	-11.9616
xf	-11.9616
EntityId	-11.9617
paths	-11.9618
nickname	-11.9621
sec	-11.9623
Factories	-11.9624
getNamespace	-11.9626
mv	-11.9626
getRow	-11.9627
RemoteControl	-11.9628
Clean	-11.9631
isSuccess	-11.9632
▁isCancelled	-11.9633
▁foo	-11.9635
▁mCb	-11.9636
▁notes	-11.9636
▁isEnd	-11.964
▁outgoing	-11.964
▁dependency	-11.964
VER	-11.964
▁mIndicator	-11.9645
setLocation	-11.9646
▁onPre	-11.9647
vc	-11.9647
▁AM	-11.9648
jo	-11.9648
Ledger	-11.965
/2	-11.9651
SWT	-11.9651
atom	-11.9651
▁getPreferred	-11.9651
DynAny	-11.9652
RINGER	-11.9652
▁Maven	-11.9653
AndGet	-11.9653
getHostName	-11.9655
getExpression	-11.9655
▁mVisible	-11.9656
Square	-11.9656
LongWritable	-11.9659
Frames	-11.9659
Shortcuts	-11.9659
▁mailbox	-11.966
▁getCategory	-11.966
Water	-11.9665
removePreference	-11.9666
ARN	-11.9667
Cl	-11.9667
BlockSize	-11.9667
▁mManager	-11.9667
▁unexpected	-11.9667
▁fieldType	-11.9669
▁di	-11.9669
Activate	-11.967
▁getCall	-11.9671
getContainer	-11.9672
runnable	-11.9675
TabView	-11.9678
bitcoin	-11.9678
▁undo	-11.9681
capitalize	-11.9682
Speech	-11.9686
getRepository	-11.9687
containsAll	-11.969
duplicate	-11.969
orm	-11.969
pure	-11.9693
asset	-11.9693
▁analysis	-11.9694
isset	-11.9694
mTitle	-11.9695
▁stringBuilder	-11.9696
mount	-11.9699
▁bg	-11.97
asInterface	-11.97
▁issuer	-11.97
bounds	-11.9704
Wiki	-11.9705
▁getN	-11.9706
Pick	-11.9707
Clob	-11.9708
ones	-11.9709
▁toReturn	-11.971
Cover	-11.9711
getBy	-11.9711
ident	-11.9713
zero	-11.9714
▁faker	-11.9715
currency	-11.9715
styleable	-11.9717
etPositiveButton	-11.9717
ated	-11.9719
support	-11.972
▁unwrap	-11.9722
▁spinner	-11.9723
▁Card	-11.9726
▁major	-11.9727
GetRequest	-11.9728
▁getShort	-11.973
DisplayOrder	-11.9731
OO	-11.9731
Installer	-11.9734
orcid	-11.9736
Via	-11.9738
DeclaringClass	-11.974
▁setField	-11.974
MOVE	-11.974
▁Find	-11.9741
▁ObjectAnimator	-11.9743
▁Theme	-11.9744
▁mNotification	-11.9744
startDate	-11.9747
dk	-11.9752
CALLBACK	-11.9752
nc	-11.9752
EncounterType	-11.9753
▁Serializer	-11.9754
sig	-11.9756
getCall	-11.9757
SampleRate	-11.976
mgr	-11.976
Each	-11.9761
ManagerFactory	-11.9763
▁InMemory	-11.9763
setBoolean	-11.9763
og	-11.977
Hand	-11.977
▁getI	-11.9771
War	-11.9772
candidate	-11.9775
▁unlock	-11.9777
▁Display	-11.9779
MEDIUM	-11.978
CRE	-11.978
▁fos	-11.978
components	-11.9781
GLCanvas	-11.9783
▁exc	-11.9783
▁players	-11.9784
Adding	-11.9786
▁InvalidKey	-11.9786
▁apps	-11.9787
Scroller	-11.9791
getStackInSlot	-11.9793
ARGUMENT	-11.9794
Collator	-11.9794
Toolkit	-11.9796
▁pressed	-11.9797
▁following	-11.9797
CAP	-11.9798
▁Money	-11.9799
AP	-11.98
junit	-11.9801
ParsingException	-11.9802
isStatic	-11.9802
trait	-11.9805
FILENAME	-11.9808
▁BorderLayout	-11.9809
▁oos	-11.981
Restrictions	-11.9813
CertPath	-11.9816
Postal	-11.9818
realm	-11.9818
getShell	-11.9819
▁getItemViewType	-11.982
FieldContainer	-11.982
▁PhoneNumber	-11.9821
mer	-11.9822
TEMPLATE	-11.9823
readFully	-11.9823
▁toast	-11.9823
Mass	-11.9823
Adjustment	-11.9826
▁Login	-11.9826
setClass	-11.9829
ClickEvent	-11.9832
Ime	-11.9832
ecurityException	-11.9832
Mat	-11.9833
addMessage	-11.9835
("]");	-11.9835
▁pe	-11.9835
MO	-11.9838
cmp	-11.9838
setComponent	-11.9838
Derived	-11.9838
▁mScale	-11.9839
▁Logging	-11.9839
ProfileManager	-11.9839
TokenType	-11.984
IResource	-11.984
▁notifications	-11.9843
SearchResult	-11.9844
Published	-11.9844
▁Browser	-11.9845
isArray	-11.9846
used	-11.9847
▁conditions	-11.9847
▁hours	-11.9847
Many	-11.9848
DataTable	-11.985
▁sourceId	-11.9851
Drawing	-11.9852
Misc	-11.9854
▁such	-11.9855
ang	-11.9856
CO	-11.9857
▁processRequest	-11.9862
▁declared	-11.9862
▁drive	-11.9864
Expire	-11.9864
codec	-11.9865
▁isPaused	-11.9866
(")");	-11.9866
kb	-11.9866
Internet	-11.9866
▁standard	-11.9869
DataStore	-11.9869
ServiceName	-11.9872
cachedDevice	-11.9875
▁configFile	-11.9875
words	-11.9876
SourceFile	-11.9879
BACKGROUND	-11.988
hasPermission	-11.9881
addParameter	-11.9881
RESTORE	-11.9882
▁Placeholder	-11.9883
Deferred	-11.9883
▁Fast	-11.9885
▁mSwitch	-11.9886
ativeOrder	-11.9887
▁setMin	-11.9888
mValue	-11.9892
getResultList	-11.9892
▁getOrder	-11.9894
Too	-11.9895
Policies	-11.9895
supports	-11.9895
▁ks	-11.9896
FactoryImpl	-11.9896
▁really	-11.9899
▁onTouch	-11.9902
▁mAudio	-11.9905
irods	-11.9905
PROCESS	-11.9908
Pop	-11.9908
writeDouble	-11.9909
▁occurred	-11.9909
BEAN	-11.991
CellInfo	-11.9912
Di	-11.9912
getFrom	-11.9913
Boxes	-11.9913
▁quit	-11.9914
▁later	-11.9914
getFloat	-11.9916
mUri	-11.9917
UAL	-11.9922
▁2.0	-11.9922
▁expires	-11.9923
nNothingSelected	-11.9924
BUS	-11.9925
KeyPairGenerator	-11.9926
ContactList	-11.9926
("@	-11.9926
openStream	-11.9926
GEN	-11.9928
KMS	-11.993
▁balance	-11.9932
preferenceScreen	-11.9933
PopupMenu	-11.9934
▁BitSet	-11.9934
▁fileType	-11.9935
CRS	-11.9937
▁Sets	-11.9938
WRAP	-11.9938
▁mAnimation	-11.9939
worldObj	-11.994
Pad	-11.9941
▁isAvailable	-11.9942
▁getMode	-11.9945
subId	-11.9947
▁mUi	-11.9949
▁CellLayout	-11.9949
Lua	-11.9949
▁DocumentBuilder	-11.9953
TreeUtil	-11.9954
▁mount	-11.9956
▁ops	-11.9956
BodyPart	-11.9958
itemId	-11.9958
▁clarifai	-11.9958
serial	-11.9958
StorageException	-11.9959
▁valueBuf	-11.9959
▁fileSystem	-11.9959
▁Registrant	-11.996
▁Put	-11.996
▁getExpected	-11.9962
basic	-11.9963
Dns	-11.9967
Btn	-11.9968
baseUrl	-11.9969
▁WebDriver	-11.9969
▁Instantiation	-11.9972
▁mInput	-11.9973
UnitUtil	-11.9975
BlockPos	-11.9977
▁Game	-11.9978
Maker	-11.9979
▁FluidStack	-11.998
attributeName	-11.998
▁savedState	-11.9981
Difference	-11.9982
News	-11.9983
▁via	-11.9984
▁coordinate	-11.9988
▁stopButtonId	-11.9988
TENSION	-11.999
RequestContext	-11.9992
Instrument	-11.9996
Ics	-11.9998
▁getTop	-12
▁digits	-12.0001
tra	-12.0009
MainActivity	-12.001
getDisplay	-12.0011
sorted	-12.0011
CAPABILIT	-12.0012
ValueMap	-12.0013
Silently	-12.0013
lin	-12.0014
▁LogUtils	-12.0015
Suppress	-12.0019
methods	-12.0019
FORM	-12.0019
InCallScreen	-12.002
avaClass	-12.0021
▁mIn	-12.0024
EditorView	-12.0025
lot	-12.0026
WebPage	-12.0027
▁facility	-12.0028
mShow	-12.0028
▁mBuilder	-12.003
▁written	-12.0032
Effective	-12.0033
Alphabet	-12.0034
ine	-12.0036
▁FORMAT	-12.0039
▁2]	-12.0039
▁days	-12.004
toMillis	-12.0041
CallWaiting	-12.0041
▁Ct	-12.0043
onBackPressed	-12.0043
Forge	-12.0046
▁Evaluation	-12.0048
getDescriptor	-12.0049
activate	-12.0049
▁onDevice	-12.0049
Fragments	-12.005
star	-12.005
▁setGroup	-12.0051
getStorage	-12.0053
ger	-12.0054
slide	-12.0054
Mosaic	-12.0055
BeforeEach	-12.0057
describe	-12.0059
zk	-12.0059
▁PduHeaders	-12.006
IfEmpty	-12.006
Glow	-12.006
(1)	-12.0061
▁multiply	-12.0061
radio	-12.0061
PathExpression	-12.0061
Requirements	-12.0061
▁outFileName	-12.0062
typeName	-12.0063
constant	-12.0064
RING	-12.0065
CIT	-12.0066
▁transactions	-12.0066
SizeInBytes	-12.0068
classLoader	-12.0069
▁ReInit	-12.0069
▁bc	-12.0069
Lexical	-12.0071
hidden	-12.0074
Customizer	-12.0075
▁instanceContext	-12.0075
▁isPhone	-12.0075
touch	-12.0076
getEmail	-12.0077
prompt	-12.0078
rect	-12.008
▁Dependency	-12.0083
Equipment	-12.0084
Teleport	-12.0085
Languages	-12.0086
WARN	-12.0087
MenuPresenter	-12.009
SSLSocketFactory	-12.0093
▁editText	-12.0093
▁webView	-12.0093
▁appName	-12.0095
▁svc	-12.0095
▁Instant	-12.0095
press	-12.0097
UserDictionary	-12.0099
DESCRIPTION	-12.01
Knowledge	-12.01
ValuesHolder	-12.0101
unlinkTo	-12.0102
rewind	-12.0102
GA	-12.0103
▁Hive	-12.0103
▁MIN	-12.0104
FieldValue	-12.0104
Modes	-12.0105
convertTo	-12.0105
features	-12.0108
setFont	-12.0109
InMemory	-12.011
▁getInputStream	-12.011
▁SystemException	-12.0111
EReference	-12.0114
del	-12.0114
VideoEncoder	-12.0115
▁xsp	-12.0116
mot	-12.0118
apn	-12.0119
Brand	-12.0123
Keywords	-12.0129
TrackPoint	-12.0129
▁successfully	-12.0131
accessibility	-12.0131
RowCount	-12.0132
▁SSL	-12.0133
ipAddress	-12.0134
▁AccountManager	-12.0134
OfDay	-12.0134
reqMsg	-12.0135
isAnnotation	-12.0135
onKeyDown	-12.0139
▁mCameraDevice	-12.0139
▁mResources	-12.014
▁creation	-12.0143
BUILD	-12.0143
▁cookies	-12.0144
▁getCache	-12.0145
▁configured	-12.0147
▁sm	-12.0148
require	-12.0148
▁instant	-12.0151
▁eq	-12.0152
▁resourceName	-12.0152
▁atom	-12.0152
tf	-12.0155
▁average	-12.0157
▁checkState	-12.0158
PagedView	-12.016
Explorer	-12.016
printf	-12.0161
ToolTip	-12.0165
blocks	-12.0165
▁tileEntity	-12.0166
getTimeInMillis	-12.0167
uest	-12.0167
transformer	-12.0167
▁references	-12.0168
Clipboard	-12.0168
Waypoints	-12.0171
ContactPhoto	-12.0172
SSLEngine	-12.018
attach	-12.0184
keep	-12.0185
assume	-12.0185
uoted	-12.0186
▁trip	-12.019
FileSize	-12.019
np	-12.019
RecipientsEditor	-12.0191
Semantic	-12.0193
Attempts	-12.0194
▁authenticate	-12.0196
▁getStream	-12.0198
oiner	-12.0199
▁childPosition	-12.0199
TestUtil	-12.0201
Exponent	-12.0204
RUNNING	-12.0204
CountryIso	-12.0204
waveform	-12.0205
▁privateKey	-12.0207
checkState	-12.0207
HashSet	-12.0207
Upper	-12.0209
▁dataSets	-12.021
▁setFile	-12.021
▁Sample	-12.0211
▁matched	-12.0217
Inclusion	-12.0219
Echo	-12.0219
Tiff	-12.0219
RegisterCount	-12.022
REPLACE	-12.022
LogRecord	-12.0221
ContactUri	-12.0222
▁Trace	-12.0226
TransitionOption	-12.0227
tail	-12.0229
eas	-12.0231
two	-12.0233
▁ValueType	-12.0233
RINGTONE	-12.0234
KeepAlive	-12.0234
Associated	-12.0236
Spark	-12.0239
sun	-12.0239
▁green	-12.024
getObjectAt	-12.0243
▁dispatcher	-12.0249
▁Bound	-12.025
getLooper	-12.0252
Viewport	-12.0253
▁buffers	-12.0253
▁relativePath	-12.0254
Reconnect	-12.0257
fade	-12.0259
notifyChange	-12.0262
getC	-12.0263
NOW	-12.0263
Under	-12.0264
getSettings	-12.0264
gateway	-12.0264
Listening	-12.0265
answer	-12.0268
cannot	-12.0269
aliases	-12.0269
▁isn	-12.027
Removal	-12.0272
▁IF	-12.0272
▁segments	-12.0273
projectId	-12.0273
▁av	-12.0273
▁buff	-12.0275
RecordingState	-12.0276
UserHandle	-12.0278
NI	-12.0279
SerialNumber	-12.0279
SubId	-12.0279
▁Canvas	-12.028
▁Asset	-12.0281
RR	-12.0282
▁mProvider	-12.0282
▁actually	-12.0283
AGENT	-12.0284
("+	-12.0285
Minecraft	-12.0286
TempFile	-12.0286
▁testClass	-12.0287
▁typed	-12.0288
variant	-12.029
adjust	-12.0292
FACING	-12.0294
referenceType	-12.0295
▁pv	-12.0296
setImageBitmap	-12.0297
▁serial	-12.0298
20,	-12.0301
▁teardown	-12.0301
("12	-12.0302
ALPHA	-12.0309
Ender	-12.0309
IProgressMonitor	-12.0311
▁deactivate	-12.0311
ConnectionStatus	-12.0311
▁findColumn	-12.0313
getContentType	-12.0315
projection	-12.0316
▁Cipher	-12.0321
Broadcaster	-12.0322
Gallery	-12.0322
00)	-12.0322
nameSpace	-12.0323
ail	-12.0323
▁100);	-12.0323
AttributeType	-12.0324
phoneNumber	-12.0324
PreferenceGroup	-12.0324
addAdapter	-12.0324
TER	-12.0325
▁mConfig	-12.033
algorithmName	-12.0331
getItems	-12.0331
▁endElement	-12.0333
Ended	-12.0333
Mu	-12.0333
Vanilla	-12.0335
Gc	-12.0335
▁CallLog	-12.0335
white	-12.0338
OOM	-12.0338
AAC	-12.0339
▁2));	-12.0341
ctor	-12.0341
▁RawContactDelta	-12.0342
Defs	-12.0344
▁Processing	-12.0345
Destroyed	-12.0351
ExternalStorage	-12.0351
inv	-12.0355
Accumulator	-12.0355
elapsedRealtime	-12.0355
▁itemType	-12.0356
WAITING	-12.0356
ulianDay	-12.0357
▁Smith	-12.0361
mVideoEditor	-12.0362
▁editable	-12.0366
CONTROL	-12.037
instanceId	-12.037
aspect	-12.0376
LocalizedMessage	-12.0377
▁eventBus	-12.0378
ErrorDialog	-12.0378
Hints	-12.038
Assigned	-12.0381
izable	-12.0381
▁tts	-12.0381
Intercept	-12.0381
ColorFilter	-12.0382
▁Ant	-12.0382
metaData	-12.0383
▁mSearch	-12.0383
▁getActionBar	-12.0383
CellRenderer	-12.0383
Oozie	-12.0384
kill	-12.0384
INF	-12.0385
Half	-12.0387
Relay	-12.0388
our	-12.039
WithId	-12.0393
Compatible	-12.0394
▁merged	-12.0394
▁Access	-12.0394
▁setLocation	-12.0397
HttpHeaders	-12.0398
DER	-12.04
ByUser	-12.0402
PieItem	-12.0406
▁streams	-12.0407
▁mismatch	-12.041
pub	-12.0411
▁btn	-12.0411
▁grammar	-12.0413
got	-12.0413
▁addItem	-12.0414
pu	-12.0414
ern	-12.0416
▁onLoaderReset	-12.0416
getMinecraft	-12.0416
Mojo	-12.0418
▁menuItem	-12.0419
EndPoint	-12.0419
Layers	-12.042
ServiceInfo	-12.0422
constructor	-12.0424
▁nb	-12.0425
▁mDelete	-12.0425
lastName	-12.0427
Less	-12.0428
loadUrl	-12.0429
AO	-12.0429
▁VirtualFile	-12.043
▁runTest	-12.0431
▁rowId	-12.0431
Heartbeat	-12.0431
HORI	-12.0431
ls	-12.0432
Searchable	-12.0432
Manage	-12.0433
dm	-12.0433
▁mSeekBar	-12.0433
▁responder	-12.0433
Safely	-12.0435
Versioned	-12.0435
Motion	-12.0436
getShared	-12.0437
stackSize	-12.0438
Caps	-12.0438
comments	-12.0439
▁profileName	-12.0441
Le	-12.0442
picker	-12.0443
fe	-12.0444
▁getH	-12.0446
Chip	-12.0448
tracker	-12.0449
finished	-12.0449
Sketch	-12.045
▁Comment	-12.0455
cross	-12.0456
Prime	-12.0457
ph	-12.0457
getSupport	-12.0458
▁mGL	-12.0458
▁setImage	-12.0459
replay	-12.0459
supported	-12.0461
▁WebSocket	-12.0461
Inclusive	-12.0462
▁enough	-12.0462
mTab	-12.0463
▁getSearch	-12.0464
▁ca	-12.0466
▁dbHelper	-12.0467
▁PD	-12.0469
▁msgId	-12.0471
ServiceListener	-12.0472
issuer	-12.0473
▁tip	-12.0475
parms	-12.0476
appendPath	-12.0476
▁mStartTime	-12.0479
▁fast	-12.048
SavedState	-12.048
▁getProcess	-12.0481
▁ordinal	-12.0483
0:	-12.0483
▁KeyValue	-12.0486
TR	-12.0487
▁placeholder	-12.0488
▁mMediaRecorder	-12.049
Reducer	-12.0491
ish	-12.0493
▁Priority	-12.0494
▁Scan	-12.0494
DateRange	-12.0495
Duplicates	-12.0498
VP	-12.05
Href	-12.05
just	-12.0503
getPrefix	-12.0505
DATABASE	-12.0508
▁HashCodeBuilder	-12.0509
Lifetime	-12.0509
getBottom	-12.051
quick	-12.0511
LT	-12.0512
▁mongo	-12.0513
SurfaceHolder	-12.052
area	-12.052
▁capabilities	-12.0522
verbose	-12.0523
violation	-12.0523
▁terminated	-12.0524
wrapper	-12.0525
▁currentUser	-12.0527
Pure	-12.0528
od	-12.0529
▁Timer	-12.0531
Trust	-12.0532
▁parsing	-12.0533
charge	-12.0535
▁Comparator	-12.0538
setInput	-12.0538
Advisor	-12.0539
pat	-12.054
Monkey	-12.054
Fun	-12.0541
Trailing	-12.0542
▁parentId	-12.0547
Ant	-12.0549
getUserId	-12.055
ttl	-12.0552
▁getRandom	-12.0553
actor	-12.0553
Com	-12.0554
FRAME	-12.0554
PreferenceStore	-12.0556
Containing	-12.0557
(1))	-12.0557
mIcon	-12.0557
HE	-12.0558
CRC	-12.0558
SessionContext	-12.0562
Expiry	-12.0564
publicKey	-12.0564
rf	-12.0565
▁Annotated	-12.0568
uorum	-12.057
Skin	-12.0571
AA	-12.0571
Atmosphere	-12.0572
UnsignedByte	-12.0572
▁sf	-12.0573
▁clipboard	-12.0573
MoreKeys	-12.0575
▁duplicate	-12.0575
Purge	-12.0577
▁small	-12.0578
▁Extension	-12.058
Arm	-12.0581
▁Bad	-12.0583
wiki	-12.0587
csv	-12.0589
locations	-12.0591
MasterVolume	-12.0592
Snap	-12.0593
▁Blob	-12.0595
processInstance	-12.0596
Roll	-12.0596
labels	-12.0598
▁testIs	-12.0598
Iterations	-12.06
ba	-12.06
PrimaryKey	-12.06
BEGIN	-12.0601
▁discovery	-12.0604
▁serviceClass	-12.0605
▁logic	-12.0606
heap	-12.0609
▁rawData	-12.0609
constraint	-12.0611
MenuBuilder	-12.0615
PUBLIC	-12.0616
Testing	-12.0617
▁DFA	-12.0617
MessageListener	-12.0617
Consent	-12.0617
Mr	-12.0618
▁haxe	-12.0619
▁bl	-12.0619
▁dependencies	-12.0623
ExpressionTree	-12.0625
▁ordering	-12.0625
ClassDef	-12.0625
BondState	-12.0625
▁dirty	-12.0627
getPropertyValue	-12.0627
setState	-12.0628
FieldReference	-12.0628
▁plus	-12.0629
PlayerEntity	-12.0629
▁mChild	-12.0629
Uris	-12.0629
qualifier	-12.0632
Weighted	-12.0632
ber	-12.0637
RA	-12.0637
SearchIndex	-12.0643
Danmaku	-12.0643
▁HostAuth	-12.0646
▁getUsername	-12.0646
▁getMeta	-12.0646
▁truncate	-12.0647
TrackFileFormat	-12.0648
▁accepted	-12.0649
DBObject	-12.0651
FailureException	-12.0652
Hibernate	-12.0655
▁si	-12.0655
SM	-12.0661
BaseUri	-12.0663
Different	-12.0663
TransactionInput	-12.0664
Gid	-12.0666
intern	-12.0667
pull	-12.0669
getRemote	-12.0671
COSName	-12.0671
deployment	-12.0672
nfs	-12.0673
▁how	-12.0674
Perform	-12.0675
▁onKey	-12.0676
addHeader	-12.0676
MASTER	-12.0679
ONTAL	-12.0679
▁cas	-12.068
clock	-12.0681
dummy	-12.0681
entityManager	-12.0681
EntityData	-12.0682
Expandable	-12.0682
does	-12.0684
▁getSubject	-12.0685
ClientServer	-12.0686
propagate	-12.0688
▁methodBuilder	-12.0688
OnClick	-12.0688
bitfield	-12.069
CLI	-12.069
▁swap	-12.0691
MediaController	-12.0692
▁conference	-12.0693
Riak	-12.0695
lf	-12.0697
▁checker	-12.0697
▁INTEGER	-12.0697
Compaction	-12.0699
MIMET	-12.0699
getDomain	-12.0701
ExecutionContext	-12.0702
▁getNetwork	-12.0702
▁Clojure	-12.0703
Phonebook	-12.0703
Accuracy	-12.0707
▁Grid	-12.0708
▁getT	-12.071
Animated	-12.071
POLIC	-12.071
DI	-12.0711
Ret	-12.0712
proto	-12.0715
FILES	-12.0715
▁Transformation	-12.0716
▁their	-12.0717
▁mainFrame	-12.0718
currentIndex	-12.0719
Docker	-12.0719
mapred	-12.072
Po	-12.072
PREFERENCE	-12.0721
tcp	-12.0723
▁cat	-12.0724
TitleBar	-12.0725
▁totalCount	-12.0725
▁grant	-12.0727
onNext	-12.0727
CacheSize	-12.0727
ItemId	-12.0728
Sortable	-12.0728
2:	-12.0732
▁below	-12.0732
Ws	-12.0737
IccRecords	-12.0738
getViewTypeCount	-12.0742
Documentation	-12.0743
ActionBuilder	-12.0744
Caption	-12.0745
Unlock	-12.0746
Recycler	-12.0746
▁authType	-12.0746
Edition	-12.0747
STR	-12.0748
serverIf	-12.0748
CreationDate	-12.0751
Sec	-12.0751
Visualizer	-12.0751
▁Rule	-12.0755
▁dead	-12.0756
RemoteDisplay	-12.0757
cardinality	-12.0758
▁EasyMock	-12.0758
Detection	-12.0758
setLooping	-12.0758
Sliding	-12.0759
▁WebApplication	-12.0761
Leave	-12.0762
PhoneState	-12.0762
separatorChar	-12.0762
BluetoothShare	-12.0765
classpath	-12.0767
▁Tone	-12.0767
Spell	-12.0768
▁suggestion	-12.0769
▁onFinishInflate	-12.077
▁indexName	-12.077
Lost	-12.0774
localized	-12.0774
▁Management	-12.0774
▁large	-12.0776
DH	-12.0777
▁longer	-12.0779
Human	-12.0779
CacheManager	-12.0782
Requester	-12.0782
TypeVariable	-12.0783
sMap	-12.0785
▁getValid	-12.0786
dpService	-12.0788
▁mKey	-12.0789
Privacy	-12.0789
▁PrivateKey	-12.0789
AVAILABLE	-12.0789
Crash	-12.0789
PREVIEW	-12.0791
mCall	-12.0792
getAverage	-12.0792
▁Should	-12.0793
getTask	-12.0793
▁EF	-12.0793
Anonymous	-12.0793
Ship	-12.0794
GestureDetector	-12.0797
INIT	-12.0797
▁onCompletion	-12.0799
▁lazy	-12.08
RequestHandler	-12.0801
Bukkit	-12.0802
▁Symbol	-12.0803
SUBSCRIPTION	-12.0805
temperature	-12.0805
▁Register	-12.0807
UIRED	-12.0807
COLUMNS	-12.0809
Enc	-12.0809
Thunker	-12.0809
mAudioFocus	-12.081
rr	-12.081
▁rebuild	-12.0811
▁tables	-12.0814
▁registerB	-12.0815
▁streamId	-12.0815
▁GT	-12.0816
▁setChecked	-12.0816
Sibling	-12.0817
▁vote	-12.0818
▁analyzer	-12.082
SignalStrength	-12.0821
library	-12.0822
▁UTF	-12.0826
▁crop	-12.0827
Getting	-12.0829
▁createDefault	-12.083
▁Fetch	-12.0833
▁ports	-12.0833
▁queries	-12.0834
accountName	-12.0834
▁tier	-12.0835
Thrift	-12.0835
▁setter	-12.0835
SipCall	-12.0835
Bullet	-12.0837
SharkKBException	-12.0837
facing	-12.0839
▁INVALID	-12.0841
▁recent	-12.0841
Reserved	-12.0841
▁mUser	-12.0844
AttributeName	-12.0847
▁Geometry	-12.0853
FINISHED	-12.0854
▁verbose	-12.0854
▁PhoneGlobals	-12.0855
TableColumn	-12.0858
Walk	-12.0858
mu	-12.0861
20);	-12.0862
▁compiler	-12.0864
Cookies	-12.0865
isNotNull	-12.0866
▁declare	-12.0867
Trim	-12.0868
health	-12.0869
viewer	-12.087
▁getter	-12.087
KIND	-12.0871
ActionProvider	-12.0871
terminal	-12.0872
▁watch	-12.0872
▁addView	-12.0873
DocumentEvent	-12.0875
Uploaded	-12.0877
▁setCustom	-12.0879
hostdb	-12.088
Guid	-12.0881
(1000);	-12.0885
Heat	-12.0885
Resp	-12.0886
Libraries	-12.0886
]";	-12.0889
listen	-12.0889
ItemEvent	-12.0894
Converters	-12.0895
sr	-12.0896
▁lib	-12.0896
Scopes	-12.0897
Blip	-12.0898
DOMException	-12.0899
▁Icc	-12.0899
OfType	-12.0899
OuterClass	-12.0903
WebService	-12.0903
getForm	-12.0904
▁pan	-12.0904
▁pa	-12.0904
▁Nibble	-12.0905
▁Photo	-12.0905
CU	-12.0907
translation	-12.0907
Currently	-12.0908
▁EmailContent	-12.0911
▁encrypted	-12.0912
CAN	-12.0917
▁sha	-12.0917
ForApp	-12.0917
getM	-12.0917
addAndGet	-12.0918
Blend	-12.0918
▁getModule	-12.0921
▁onScroll	-12.0922
big	-12.0922
NT	-12.0923
▁setEnd	-12.0926
▁mBackground	-12.0927
▁images	-12.0927
LS	-12.093
▁us	-12.093
AllApps	-12.0932
inherit	-12.0933
Employee	-12.0933
PASS	-12.0934
Multimap	-12.0936
NetworkType	-12.0936
Edm	-12.0938
writeMessage	-12.0938
getDialog	-12.0939
▁mu	-12.0941
▁middle	-12.0942
DataState	-12.0942
ile	-12.0943
collector	-12.0946
CAS	-12.0947
PreviewDone	-12.0948
PICK	-12.0949
ALPHABET	-12.0949
grant	-12.0956
RI	-12.0959
Alternate	-12.0962
▁ResourceBundle	-12.0962
▁flip	-12.0964
rev	-12.0964
interface	-12.0965
lic	-12.0966
▁namespaceURI	-12.0967
factor	-12.0967
Specified	-12.0967
Avp	-12.0969
▁Keyboard	-12.0971
harvest	-12.0973
getLineNumber	-12.0974
PM	-12.0975
CountryCode	-12.0975
▁getScroll	-12.0976
▁Spanned	-12.0976
▁createdAt	-12.0976
Packed	-12.0977
▁Pre	-12.0977
bucketName	-12.0981
CAPTURE	-12.0982
▁findChildBy	-12.0982
FileStatus	-12.0983
CallList	-12.0983
▁big	-12.0984
▁router	-12.0986
▁board	-12.0988
Mount	-12.0989
etag	-12.0989
▁arrays	-12.0991
▁mOpenHelper	-12.0991
multiply	-12.0992
BeforeMethod	-12.0993
getMember	-12.0994
Scaling	-12.0996
Intents	-12.1004
RestClient	-12.1004
SearchRequest	-12.1004
outcome	-12.1004
▁light	-12.1006
forward	-12.1007
▁onDraw	-12.1011
Linphone	-12.1012
Distinct	-12.1014
▁mIsProfileReady	-12.1014
RP	-12.1014
isPublic	-12.1015
sdk	-12.1015
getError	-12.1017
▁mViewPager	-12.1018
pay	-12.1018
▁isRunning	-12.1021
▁verification	-12.1022
▁Inline	-12.1025
▁lb	-12.1025
Tower	-12.1028
▁caught	-12.1028
▁serverId	-12.1029
▁ident	-12.1029
▁handling	-12.103
getMain	-12.103
▁getBytes	-12.1031
Substitution	-12.1032
▁Tags	-12.1032
Door	-12.1035
▁When	-12.1036
WithName	-12.1036
onBindView	-12.1043
▁getAlgorithm	-12.1043
broker	-12.1044
createStatement	-12.1044
▁Conversion	-12.1044
RM	-12.1045
oper	-12.1045
RF	-12.1045
changeCursor	-12.1046
getTest	-12.1047
Stem	-12.1048
DIRECTION	-12.1049
▁simulate	-12.1049
Attack	-12.105
removeAllViews	-12.1051
▁getCreated	-12.1052
getMod	-12.1052
TableRow	-12.1052
ListOf	-12.1053
▁mEnabled	-12.1054
▁getWorld	-12.1055
unmodifiable	-12.1057
▁won	-12.1057
ActionHandler	-12.1061
▁quick	-12.1062
framework	-12.1062
▁ack	-12.1062
PENDING	-12.1063
getProgress	-12.1063
▁strict	-12.1063
DrawableState	-12.1064
compressor	-12.1064
Analytics	-12.1066
tagName	-12.1066
mDefault	-12.1067
▁paramName	-12.107
▁within	-12.1072
ConnectionPool	-12.1074
▁cpu	-12.1074
▁getLocale	-12.1076
cassandra	-12.1077
rmi	-12.1077
▁clusterName	-12.108
AppInfo	-12.1082
ChildElement	-12.1082
Reached	-12.1083
MBeanServer	-12.1087
▁regions	-12.1088
Choose	-12.1088
EntityPlayerMP	-12.1088
setOnPreference	-12.1088
VibrateSetting	-12.1088
UR	-12.1089
DataItem	-12.1089
GO	-12.1089
EndOf	-12.109
ToSend	-12.1093
Examples	-12.1095
▁inline	-12.1096
▁band	-12.1103
ative	-12.1108
Returned	-12.1108
fully	-12.1109
▁delivery	-12.1109
▁AtCommandResult	-12.1111
Solution	-12.1112
parallel	-12.1112
▁Timber	-12.1112
ide	-12.1113
Ast	-12.1115
▁testCreate	-12.1115
▁know	-12.1122
rg	-12.1122
getSql	-12.1124
▁getAdapter	-12.1125
▁getHeaders	-12.1127
▁getClassName	-12.1127
RDF	-12.1127
obStatus	-12.1128
Curator	-12.1129
▁pub	-12.113
▁ActiveM	-12.113
slice	-12.1131
Expect	-12.1131
▁indicator	-12.1131
mProfile	-12.1132
▁sh	-12.1132
▁onTouchEvent	-12.1132
ScrollView	-12.1132
▁ticks	-12.1133
ImageReader	-12.1133
▁Shortcut	-12.1135
nav	-12.1138
WINDOW	-12.114
getInterpolation	-12.1141
bm	-12.1142
RUN	-12.1143
getLongitude	-12.1143
▁frag	-12.1143
▁coords	-12.1145
Construct	-12.1146
▁robot	-12.1146
Certification	-12.1146
▁genericType	-12.1147
▁propertyValue	-12.1147
▁credential	-12.1151
Rejected	-12.1152
Pubkey	-12.1154
Adapt	-12.1157
ftp	-12.1158
▁milliseconds	-12.1158
▁TypeReference	-12.116
getRegister	-12.1161
ExchangeRate	-12.1163
appendText	-12.1165
▁framework	-12.1165
▁viewType	-12.1165
aggregate	-12.1165
▁supply	-12.1166
revision	-12.1167
hasFocus	-12.1169
Collapse	-12.117
Functional	-12.1171
▁tagCompound	-12.1171
ForegroundCall	-12.1174
pretty	-12.1176
SLOT	-12.1178
Street	-12.1178
HidService	-12.1178
getLatitude	-12.1178
Nfc	-12.1181
pdu	-12.1182
▁ClassPath	-12.1183
endTime	-12.1184
setDaemon	-12.1186
sendError	-12.1186
BIND	-12.1188
Div	-12.1189
sAnd	-12.1189
mSettings	-12.1192
LITERAL	-12.1194
DalvInsn	-12.1194
SKIP	-12.1194
▁Lifecycle	-12.1195
InUse	-12.1195
LauncherSettings	-12.1196
▁Twitter	-12.1196
▁Maps	-12.1196
Guest	-12.1199
tools	-12.12
addHandler	-12.12
Observers	-12.1204
beans	-12.1204
▁recipients	-12.1204
fl	-12.1205
▁mServer	-12.1207
mime	-12.121
VirtualMachine	-12.1211
LockPatternUtils	-12.1212
▁notifyChanged	-12.1216
▁getComment	-12.1219
Detect	-12.1221
Vocabulary	-12.1222
▁SipProfile	-12.1223
▁detector	-12.1224
ised	-12.1225
ReturnType	-12.1225
▁Maybe	-12.1225
ontentfwkPackage	-12.1227
Gerrit	-12.1227
ApiModelProperty	-12.1227
MISSING	-12.1228
▁memoizedI	-12.1229
▁sprite	-12.1231
Downloader	-12.1232
stone	-12.1233
Wildcard	-12.1234
▁onConfiguration	-12.1234
Prototype	-12.1234
FeatureType	-12.1235
AndFinish	-12.1236
▁front	-12.1236
▁mStreamStates	-12.1237
▁assertContains	-12.1239
Malformed	-12.1242
Potion	-12.1242
sendPacket	-12.1242
Speaker	-12.1243
Good	-12.1245
objects	-12.1246
startAnimation	-12.1246
ah	-12.1246
getSubject	-12.1246
SelectionMode	-12.1247
DOWNLOAD	-12.1248
createFrom	-12.1249
quality	-12.1249
major	-12.1252
▁idle	-12.1254
COP	-12.1255
▁mBuffer	-12.1255
▁nm	-12.1259
Calculation	-12.126
InAppMessage	-12.126
accessToken	-12.1263
commands	-12.1263
▁cells	-12.1263
IIconRegister	-12.1264
getFluid	-12.1267
▁production	-12.1268
▁BluetoothPbap	-12.1269
ight	-12.127
PRESSION	-12.1271
getLog	-12.1272
00000001	-12.1272
IProject	-12.1275
ThreadLocal	-12.1275
▁getRole	-12.1276
Spot	-12.1276
CONTINUE	-12.1277
▁RDF	-12.1278
▁procedure	-12.1279
Three	-12.1279
Guild	-12.1279
▁stackTrace	-12.1281
NCMB	-12.1283
records	-12.1284
Dataflow	-12.1285
▁hand	-12.1285
▁recv	-12.1287
ResourceLocator	-12.1288
scenario	-12.1288
▁Sms	-12.1292
rules	-12.1292
caseSensitivity	-12.1293
pivot	-12.1294
▁cycle	-12.1294
Finding	-12.1296
PostDial	-12.1297
▁ToStringBuilder	-12.1297
getAuthority	-12.1298
▁mEditText	-12.13
RSA	-12.13
BuilderFactory	-12.13
▁mNumber	-12.13
getAlpha	-12.1301
▁tp	-12.1302
Vpn	-12.1303
ErrorResponse	-12.1304
dto	-12.1304
Compatibility	-12.1305
Describe	-12.1305
Schemas	-12.1307
▁getHandler	-12.1307
▁isDefault	-12.1308
instant	-12.1309
Br	-12.1313
ise	-12.1313
nano	-12.1316
patch	-12.1316
▁goTo	-12.1317
▁increase	-12.1317
Town	-12.1317
Persister	-12.1318
▁Trigger	-12.1319
▁EObject	-12.1321
Grass	-12.1321
car	-12.1324
ElemTemplate	-12.1327
TFM	-12.1328
+1]	-12.1329
▁elapsed	-12.1333
StopTime	-12.1336
etty	-12.1338
There	-12.1339
getBackground	-12.1339
Make	-12.134
PDF	-12.1343
TokenStream	-12.1344
xdrEncode	-12.1345
Cards	-12.1345
▁setLabel	-12.1348
▁tabs	-12.1349
TestClass	-12.135
Combined	-12.135
NameLookup	-12.135
DataObject	-12.1351
▁Connector	-12.1352
▁interrupted	-12.1353
▁Serialization	-12.1354
▁reverb	-12.1355
PostRequest	-12.1356
▁rnd	-12.1356
SecurityContext	-12.1356
00000	-12.1356
ARGB	-12.1359
dataType	-12.1361
Triggered	-12.1364
Achievement	-12.1367
Drm	-12.1368
RDD	-12.1368
SlideModel	-12.1371
Emergency	-12.1372
Fully	-12.1373
▁setFocus	-12.1374
ParameterValue	-12.1375
▁featureId	-12.1378
Classifier	-12.1379
▁NamingException	-12.138
onKeyUp	-12.1382
SCOPE	-12.1382
getBounds	-12.1383
▁artifactId	-12.1384
setBorder	-12.1384
("0	-12.1388
▁sense	-12.1388
Pairs	-12.139
PlaybackState	-12.139
binary	-12.1391
▁license	-12.1391
▁providerUtils	-12.1391
CI	-12.1391
SecretKey	-12.1393
▁Volume	-12.1393
PropertyType	-12.1393
▁focused	-12.1393
Fuel	-12.1394
▁produce	-12.1394
Activator	-12.1395
anonymous	-12.1396
SlideshowModel	-12.1396
logInfo	-12.1398
rpc	-12.1398
RetryCount	-12.1399
▁assertNo	-12.1399
getTargetContext	-12.14
resultSet	-12.1401
Inbound	-12.1402
AttributeSet	-12.1404
▁getTask	-12.1406
Are	-12.1407
▁getExpression	-12.1409
▁these	-12.1411
integration	-12.1411
Alternative	-12.1411
wifi	-12.1411
Allocated	-12.1412
ObjectFactory	-12.1413
▁isClosed	-12.1413
PostConstruct	-12.1414
▁startChar	-12.1415
▁trying	-12.1415
formatted	-12.1415
HeaderSet	-12.1416
Eclipse	-12.1418
Challenge	-12.1419
▁expectedValue	-12.142
findById	-12.1421
DISABLE	-12.1426
▁iteration	-12.1427
▁muted	-12.1428
WHEN	-12.1428
attempt	-12.1431
getMaterial	-12.1432
Past	-12.1432
Fly	-12.1433
▁getCached	-12.1435
Wheel	-12.1435
ek	-12.1439
IInventory	-12.1444
circle	-12.1445
Office	-12.1446
uuids	-12.1446
Slash	-12.1448
▁pull	-12.1449
dateTime	-12.1451
Unmarshaller	-12.1451
("--	-12.1454
mCache	-12.1455
▁su	-12.1456
Audible	-12.1462
Prism	-12.1462
Fingerprint	-12.1462
jcasType	-12.1465
seekToEnd	-12.1465
getFields	-12.1466
SN	-12.1467
onDetachedFrom	-12.1467
align	-12.1467
▁evaluator	-12.1469
▁mRenderer	-12.147
Serialized	-12.1471
Cardinality	-12.1471
completed	-12.1477
Reject	-12.1477
mkdir	-12.1478
mPlayPauseButton	-12.1478
Opacity	-12.1479
vault	-12.1479
▁SmilPlayer	-12.1479
KeyManager	-12.148
MODIF	-12.148
isRecording	-12.1481
▁stringValue	-12.1481
rderByComparator	-12.1481
ConfigValue	-12.1482
▁moveTo	-12.1483
rl	-12.1484
CD	-12.1484
minor	-12.1485
WORK	-12.1487
▁Biome	-12.1489
SaveService	-12.149
voice	-12.1491
▁readFrom	-12.1492
▁startup	-12.1493
decoder	-12.1493
▁onCreateDialog	-12.1495
VERTICAL	-12.1496
mOnOffButton	-12.1496
Baragon	-12.1496
lex	-12.1497
▁reuse	-12.1498
▁necessary	-12.1499
Preload	-12.15
▁mUse	-12.1501
tests	-12.1504
RawData	-12.1505
redis	-12.1505
ble	-12.1506
units	-12.1509
▁sec	-12.1509
monad	-12.151
requestId	-12.151
PaddingLeft	-12.1512
Saver	-12.1513
▁defaultInstance	-12.1513
applicationInfo	-12.1514
Timed	-12.1515
OfflinePlayer	-12.1516
▁Audio	-12.1517
▁mRoot	-12.1518
Poly	-12.1519
Switcher	-12.1519
▁getOriginal	-12.1523
▁decoded	-12.1524
▁Progress	-12.1525
Forms	-12.1525
HANDLER	-12.1526
Pr	-12.1526
logError	-12.1526
findPreference	-12.1528
MainFrame	-12.1529
HISTOR	-12.153
Fade	-12.153
mFlags	-12.153
compression	-12.153
CharArrayBuffer	-12.1531
fatal	-12.1535
Tagged	-12.1538
browse	-12.154
▁Binding	-12.154
▁serviceIntent	-12.1542
▁mEnable	-12.1542
ru	-12.1542
TP	-12.1543
▁extractor	-12.1544
codeAddress	-12.1545
VoiceMail	-12.1546
Genotype	-12.1547
▁better	-12.1547
▁sanitize	-12.1549
Txt	-12.1549
Walker	-12.155
insn	-12.155
Swap	-12.1555
▁versions	-12.1555
mStatus	-12.1556
BA	-12.1558
Bracket	-12.156
DbId	-12.1562
mTile	-12.1563
Perf	-12.1564
AbsListView	-12.1564
MethodItem	-12.1565
AnimationCancel	-12.1567
numeric	-12.1568
▁boundary	-12.1572
▁sections	-12.1573
Latitude	-12.1574
Merged	-12.1574
accessFlag	-12.1575
▁radio	-12.1577
uotes	-12.158
▁contentUri	-12.1582
SMIL	-12.1583
ForKey	-12.1584
▁packages	-12.1587
▁checkOpen	-12.1588
▁detect	-12.1589
getAsInteger	-12.159
▁attached	-12.159
▁leave	-12.1591
abort	-12.1591
ox	-12.1591
Genre	-12.1591
ck	-12.1594
▁mDrawable	-12.1597
ANIMATION	-12.1599
TaskAttempt	-12.16
finder	-12.16
▁getBean	-12.1602
ium	-12.1603
▁vm	-12.1604
AcceptThread	-12.1604
▁mUpdate	-12.1607
caller	-12.1608
▁0){	-12.1609
qname	-12.1611
▁Try	-12.1611
GreaterThan	-12.1613
deviceId	-12.1614
Characteristic	-12.1614
=0	-12.1615
IDENTIFIER	-12.1616
▁WORD	-12.1616
▁every	-12.1616
▁notifyModel	-12.1616
▁secretKey	-12.162
Require	-12.1621
▁EditText	-12.1622
orceBuild	-12.1625
▁Servlet	-12.1625
Mods	-12.1626
▁Symbols	-12.1627
AudioMode	-12.1627
▁obs	-12.1628
IfNot	-12.1628
▁targets	-12.1629
▁Shape	-12.1631
Combination	-12.1631
Ability	-12.1633
StorageEngine	-12.1633
Pretty	-12.1633
javascript	-12.1634
PB	-12.1636
▁EditorInfo	-12.1642
▁cx	-12.1642
callId	-12.1642
reduce	-12.1642
pol	-12.1644
Listen	-12.1645
ExternalId	-12.1646
schemas	-12.1647
VirtualFile	-12.1647
▁HandlerList	-12.1648
▁protocolVersion	-12.165
Motor	-12.1651
ALTER	-12.1651
BatchSize	-12.1653
▁repaint	-12.1654
KernelID	-12.1654
▁InputSource	-12.1655
Sco	-12.1655
▁mChildren	-12.1657
▁fieldValue	-12.1658
DataKind	-12.1659
▁byteBuffer	-12.1659
▁userInfo	-12.166
strict	-12.1663
▁interpolator	-12.1663
erInitialization	-12.1665
▁maybeF	-12.1666
▁MavenITmng	-12.1667
▁mWrappedClient	-12.1668
▁getTab	-12.1669
EmptyView	-12.167
Pkg	-12.1671
▁mTimer	-12.1674
▁onItemSelected	-12.1674
▁documents	-12.1675
▁Cst	-12.1677
Bo	-12.1677
chest	-12.1679
pdf	-12.168
▁EReference	-12.1682
Gson	-12.1682
SNAPSHOT	-12.1685
▁getRight	-12.1685
IMPORT	-12.1686
Slave	-12.1686
GRA	-12.1686
images	-12.1687
[1	-12.169
LOGIN	-12.169
plot	-12.1692
▁Fixed	-12.1693
▁shadow	-12.1693
▁getRepository	-12.1694
UserList	-12.1695
getChar	-12.1695
▁Supplier	-12.1696
getAmount	-12.1698
CONFIRM	-12.1702
setLayout	-12.1704
contentHandler	-12.1704
currencyCode	-12.1706
setFilter	-12.1708
▁folderName	-12.1709
▁purpose	-12.171
▁observation	-12.1712
▁routing	-12.1713
▁IS	-12.1716
AsInt	-12.1716
▁DataTable	-12.1716
latitude	-12.1718
▁writable	-12.172
TestMethod	-12.1721
Probe	-12.1722
▁notifyAll	-12.1722
▁mInfo	-12.1725
MaxSize	-12.1728
▁sl	-12.1732
setCancelled	-12.1732
▁Reflection	-12.1732
▁setPosition	-12.1732
water	-12.1736
▁errorListener	-12.1737
BOTTOM	-12.1737
MessageCount	-12.1738
▁doSomething	-12.1738
▁getFileName	-12.1741
▁emailAddress	-12.1744
mApp	-12.1744
NG	-12.1744
getActionBar	-12.1745
[102	-12.1746
▁tempFile	-12.1746
▁ValuesDelta	-12.1746
▁ae	-12.1746
StringUtil	-12.1747
▁encryption	-12.1748
PullRequest	-12.1748
▁coordinates	-12.1749
▁statements	-12.1749
▁attachments	-12.1749
▁executorService	-12.1749
▁getL	-12.1751
Executed	-12.1751
Repair	-12.1752
▁writing	-12.1753
LDAP	-12.1754
github	-12.1755
▁xy	-12.1757
Branches	-12.1757
lazy	-12.176
▁titleRes	-12.176
sink	-12.176
TimeMs	-12.1761
setIs	-12.1761
ChangeType	-12.1761
▁getContact	-12.1762
▁CM	-12.1763
waypoint	-12.1764
ProgressListener	-12.1764
Koodi	-12.1764
Topics	-12.1765
TreeModel	-12.1765
▁walk	-12.1766
Win	-12.1766
dispatchKeyEvent	-12.1767
ResourceName	-12.1768
RPC	-12.1768
setForeground	-12.1769
▁So	-12.177
WEEK	-12.1772
IGNORE	-12.1772
Bolt	-12.1772
BassBoost	-12.1772
SendFusionTables	-12.1773
▁requirement	-12.1773
▁watcher	-12.1774
▁FileUtil	-12.1776
IAction	-12.1776
SuggestionCursor	-12.1777
PING	-12.1778
reverb	-12.1778
Tolerance	-12.1779
MediaFramework	-12.1779
isStarted	-12.1779
▁vertical	-12.178
EditPart	-12.178
▁tenantId	-12.1782
authenticated	-12.1785
▁pad	-12.1786
▁means	-12.1787
▁submission	-12.1788
Stale	-12.1788
loading	-12.1789
VISIBILIT	-12.1789
▁onLayout	-12.179
Uninitialized	-12.179
▁queryParams	-12.1791
HostAuth	-12.1792
Ota	-12.1792
▁bindings	-12.1792
▁capability	-12.1794
▁onPlayer	-12.1796
Clients	-12.1796
getItemCount	-12.1796
▁dep	-12.1797
▁isOpaque	-12.1798
KeyListener	-12.1798
▁Replicator	-12.1798
VAR	-12.1799
projectName	-12.18
portForward	-12.1801
Dec	-12.1803
▁temporal	-12.1804
▁InvalidAl	-12.1804
gorithmParameter	-12.1805
parseFloat	-12.1807
deleteOnExit	-12.1808
dark	-12.1808
hy	-12.1808
dictionary	-12.1815
bufpos	-12.1816
lineNumber	-12.1816
ConfiguredState	-12.1819
Way	-12.1819
▁endIndex	-12.182
writeBytes	-12.1821
ims	-12.1821
Acceptable	-12.1822
▁Cookie	-12.1822
▁setP	-12.1823
▁setTag	-12.1824
HIGH	-12.1824
POOL	-12.1825
Partitioner	-12.1825
LogFile	-12.1826
blob	-12.1826
DNS	-12.1826
setFloat	-12.1826
nextTag	-12.1827
setPassword	-12.1828
TestContext	-12.1831
Faces	-12.1833
▁getParam	-12.1834
▁BASE	-12.1834
▁MT	-12.1834
days	-12.1834
▁detach	-12.1836
Keyspace	-12.1836
▁FieldContainer	-12.1836
▁getProtocol	-12.1837
coord	-12.1838
ImageLoader	-12.1838
Fold	-12.184
▁viewModel	-12.1841
toBytes	-12.1844
rad	-12.1845
IdItemOffset	-12.1847
Accession	-12.185
FLAGS	-12.1852
criteria	-12.1852
hs	-12.1854
DetailDescriptor	-12.1854
OctetString	-12.1855
GPS	-12.1857
Regexp	-12.1858
kafka	-12.186
weak	-12.1861
Hits	-12.1861
stringValue	-12.1861
▁parseDelimited	-12.1861
renderscript	-12.1862
▁SortedSet	-12.1862
▁skill	-12.1863
ute	-12.1863
ControlStream	-12.1865
sonToken	-12.1865
UDP	-12.1866
▁TypedValue	-12.1866
▁effective	-12.1869
HBase	-12.187
sAre	-12.1871
Abs	-12.1873
▁week	-12.1875
IRI	-12.1875
objectHandle	-12.1875
Immediate	-12.1876
mStartcount	-12.1878
▁SSH	-12.188
▁AlbumEntry	-12.188
NoSuchField	-12.1881
▁charge	-12.1882
ICE	-12.1884
AppConfiguration	-12.1885
AudioState	-12.1886
StorageDirectory	-12.1888
blue	-12.1891
▁annotationType	-12.1891
InterfaceManager	-12.1891
getFileSystem	-12.1892
afe	-12.1893
getReturnType	-12.1895
▁OmmProvider	-12.1895
▁Member	-12.1895
speak	-12.1896
▁dex	-12.1896
onDialogClosed	-12.1897
▁abs	-12.1897
▁EntityManager	-12.1898
Digital	-12.1898
▁keyspace	-12.1901
PacketBuffer	-12.1902
tz	-12.1902
▁Closeable	-12.1902
Train	-12.1902
▁rollback	-12.1906
▁servletContext	-12.1906
PopulateAcc	-12.1907
thumb	-12.1908
▁SBOLValidation	-12.1913
FORWARD	-12.1913
Drain	-12.1913
scheduler	-12.1913
avatar	-12.1913
▁graphics	-12.1913
CHARSET	-12.1914
▁directly	-12.1915
setDuration	-12.1916
▁Host	-12.1918
getFilter	-12.192
Failures	-12.192
▁startline	-12.1922
urn	-12.1923
STEP	-12.1923
codePoint	-12.1924
PH	-12.1926
▁pathTo	-12.1927
requestToken	-12.1928
▁mScroll	-12.1929
ConsistencyLevel	-12.1932
ServiceManager	-12.1933
▁setA	-12.1937
▁locked	-12.1939
▁Export	-12.1939
▁getLeft	-12.194
Checkout	-12.1941
getHash	-12.1943
StackFrame	-12.1943
▁onKeyDown	-12.1943
▁Partition	-12.1944
threshold	-12.1946
padding	-12.1947
Hotseat	-12.1948
GlideRequest	-12.1949
alReverb	-12.1949
▁MediaFormat	-12.195
▁BluetoothOpp	-12.1951
▁less	-12.1951
▁pres	-12.1952
Angular	-12.1952
VALUES	-12.1953
FocusControl	-12.1954
cid	-12.1956
Ind	-12.1957
CPU	-12.1957
▁contained	-12.1958
▁review	-12.1958
Ground	-12.196
mUser	-12.196
configFile	-12.1962
DOT	-12.1963
upper	-12.1963
detect	-12.1964
MtpDevice	-12.1967
relation	-12.1969
▁startcolumn	-12.1969
ItemType	-12.1969
serialized	-12.1969
+",	-12.1969
▁discard	-12.197
▁rowIndex	-12.1973
Endpoints	-12.1974
Metacard	-12.1975
▁removeFrom	-12.1977
addresses	-12.1979
getStyle	-12.198
▁atts	-12.1983
orig	-12.1983
▁Layer	-12.1984
Verbose	-12.1984
Percentile	-12.1984
AndWait	-12.1984
▁readData	-12.1985
stock	-12.1986
ueryException	-12.1991
▁Unknown	-12.1991
mConnection	-12.1992
▁checkArgument	-12.1994
que	-12.1997
myUserId	-12.2
ScanResult	-12.2001
Equivalent	-12.2002
Continuation	-12.2002
]+	-12.2002
▁mgr	-12.2002
DevicesMatching	-12.2003
velocity	-12.2003
▁videoEncoder	-12.2005
getButton	-12.2005
▁mFile	-12.2006
toMap	-12.2008
wd	-12.2008
setActive	-12.201
Arc	-12.201
ForId	-12.2011
▁mFileName	-12.2011
▁testInvalid	-12.2012
Maximum	-12.2012
▁setBackground	-12.2014
TestData	-12.2015
Months	-12.2015
▁give	-12.2017
hit	-12.2017
toPath	-12.2018
Exclusive	-12.2018
Compilation	-12.2018
▁executeGet	-12.2019
Unhandled	-12.202
Physics	-12.202
Precedence	-12.202
ImageRequest	-12.2021
▁critical	-12.2023
Spannable	-12.2023
OLD	-12.2024
Implement	-12.2026
launcher	-12.2028
GS	-12.2029
Sections	-12.2029
▁mPreference	-12.2031
▁expectedValues	-12.2032
Shifted	-12.2033
▁recursive	-12.2034
Unregister	-12.2037
NodeImpl	-12.2037
ray	-12.2037
refs	-12.2038
gesture	-12.2038
FONT	-12.2038
▁mError	-12.204
▁providers	-12.204
▁setParam	-12.2042
▁readable	-12.2044
getTree	-12.2044
▁extend	-12.2044
Mixed	-12.2044
▁resourceType	-12.2045
Hard	-12.2047
dataDir	-12.2047
Discount	-12.2048
keyType	-12.2048
▁valueType	-12.2049
MT	-12.2054
Removing	-12.2056
buff	-12.2058
Timers	-12.2058
CursorAdapter	-12.2059
Kafka	-12.206
MANAGER	-12.2061
ler	-12.2062
ov	-12.2062
StateException	-12.2063
Gender	-12.2064
▁OData	-12.2065
Needs	-12.2067
▁expired	-12.2067
Koodisto	-12.2069
Cassandra	-12.2069
isNaN	-12.2072
MONITOR	-12.2073
Mandatory	-12.2074
▁mTemp	-12.2075
▁samples	-12.2077
EventInfo	-12.2079
Containers	-12.208
hint	-12.2082
getSignature	-12.2082
▁mVolume	-12.2083
Imports	-12.2083
po	-12.2083
need	-12.2084
called	-12.2085
▁destroyed	-12.2086
apiKey	-12.2088
Nr	-12.209
▁presence	-12.2091
DICTIONAR	-12.2092
▁PerunException	-12.2092
▁whether	-12.2092
Spi	-12.2092
ClientId	-12.2093
Contest	-12.2094
00;	-12.2095
AudioSystem	-12.2096
HANDLE	-12.2096
▁either	-12.2097
enforceCalling	-12.2099
encoder	-12.2099
▁startElement	-12.2099
▁patterns	-12.2099
Logged	-12.2101
Else	-12.2103
BOND	-12.2103
Shot	-12.2103
▁Kind	-12.2104
ItemView	-12.2104
setUser	-12.2106
Downloaded	-12.2107
▁mCM	-12.2108
▁Rewriter	-12.2109
Relations	-12.2109
▁bank	-12.2109
BLACK	-12.211
three	-12.211
TOUCH	-12.211
FullScreen	-12.2112
Deck	-12.2114
▁coll	-12.2114
▁DataKind	-12.2115
lr	-12.2116
price	-12.2118
threadId	-12.2119
▁0.1	-12.2121
▁margin	-12.2124
▁Edit	-12.2126
nonNull	-12.2128
▁setUpClass	-12.2128
CHUNK	-12.2128
▁IFile	-12.2128
▁who	-12.2131
▁estimate	-12.2133
▁Slice	-12.2134
▁writeData	-12.2134
▁identifiers	-12.2134
du	-12.2134
maximum	-12.2134
prof	-12.2135
RefreshToken	-12.2137
ContextFactory	-12.2137
RootNode	-12.2137
▁expressions	-12.2139
telephony	-12.214
▁jcas	-12.2149
Fd	-12.2149
AndReturn	-12.215
MainThread	-12.2151
▁nc	-12.2151
starting	-12.2152
writeUTF	-12.2152
▁mCenter	-12.2153
persistence	-12.2155
FML	-12.2158
ScanClient	-12.216
▁requestUrl	-12.216
ities	-12.2162
Indirect	-12.2162
docker	-12.2162
getGeneric	-12.2163
Mission	-12.2164
DELIMITER	-12.2164
MessageItem	-12.2165
▁getNamespace	-12.2165
▁{//	-12.2167
KB	-12.2167
▁mContentView	-12.2171
Issues	-12.2173
▁Alert	-12.2174
PropertyNames	-12.2174
▁locate	-12.2174
▁mSoundPool	-12.2175
Smith	-12.2175
Roaming	-12.2176
textView	-12.2176
▁cacheKey	-12.2177
▁IP	-12.2182
HomeAsUp	-12.2183
Firmware	-12.2183
getAndIncrement	-12.2183
LivingEntity	-12.2183
Tez	-12.2183
Sid	-12.2184
▁memoryUsage	-12.2185
vals	-12.2189
▁Criteria	-12.2189
LogEntry	-12.219
jpeg	-12.2194
tables	-12.2194
▁onDetachedFrom	-12.2196
ALT	-12.2196
PackageInfo	-12.2198
registered	-12.2199
readUTF	-12.22
Corpora	-12.2201
Welcome	-12.2201
▁annotated	-12.2202
selectAll	-12.2203
ToServer	-12.2204
▁itemIndex	-12.2207
ssid	-12.2207
could	-12.2207
▁"12	-12.2208
▁ActivityManager	-12.2208
▁algorithmName	-12.2209
Hot	-12.2209
▁valueChanged	-12.221
Estimate	-12.221
ations	-12.2213
DTM	-12.2213
Instantiation	-12.2214
▁checkIf	-12.2216
Gene	-12.2216
VI	-12.2217
▁reject	-12.2218
Rail	-12.2218
Groovy	-12.2219
isTraceEnabled	-12.2219
▁getReport	-12.222
getOrder	-12.222
DataDefinition	-12.222
▁authenticator	-12.2222
WAKE	-12.2223
avro	-12.2223
▁sys	-12.2223
▁temporary	-12.2224
getPropertyName	-12.2226
▁shard	-12.2227
▁ban	-12.2228
counts	-12.2228
Visitors	-12.2228
getPreference	-12.2229
Datasource	-12.2232
Essentials	-12.2233
Furnace	-12.2233
moveTo	-12.2236
▁mSlides	-12.2236
ALERT	-12.2238
▁successful	-12.2238
hashCodeCalc	-12.224
▁mNext	-12.2241
getSecond	-12.2242
ContactEntry	-12.2243
rgb	-12.2243
Trusted	-12.2244
▁getUserId	-12.2244
▁newPin	-12.2244
+=	-12.2244
mController	-12.2245
TimerObj	-12.2247
MessageHandler	-12.2248
TCP	-12.2251
LineItem	-12.2253
▁AxisAlignedBB	-12.2253
Ca	-12.2254
▁mViews	-12.2255
▁scrollTo	-12.2256
InvalidValue	-12.2256
Propagation	-12.2256
GatewayARN	-12.2256
▁Transform	-12.2257
▁Deserializer	-12.2257
overlap	-12.2258
DOC	-12.2258
ike	-12.2259
▁intercept	-12.2259
prototype	-12.2259
ResourceManager	-12.226
▁fieldNames	-12.226
kClient	-12.2261
▁Datastore	-12.2261
queryParam	-12.2262
mText	-12.2263
MenuView	-12.2266
SoundPool	-12.2267
BooleanProperty	-12.2268
StoredValues	-12.2268
▁ImmutableMethod	-12.2268
▁maxValue	-12.2269
Guide	-12.227
Consumes	-12.2272
getNodeName	-12.2273
setUse	-12.2274
WindowEvent	-12.2276
▁indicate	-12.2278
RETURN	-12.2279
▁getOptions	-12.228
Phrase	-12.228
Dropped	-12.228
MediaScanner	-12.2283
ETag	-12.2284
▁Dispose	-12.2286
lb	-12.2287
Ent	-12.2288
cx	-12.2288
BeanDefinition	-12.2289
OProperty	-12.229
Acc	-12.2291
▁OmmConsumer	-12.2293
Expansion	-12.2293
Consume	-12.2295
StringValue	-12.2298
▁mPhoto	-12.23
▁cart	-12.2301
publication	-12.2301
▁Gregorian	-12.2302
ota	-12.2303
Alarms	-12.2305
▁overridden	-12.2306
IsValid	-12.2307
FINE	-12.2308
▁{@	-12.2308
ueryParams	-12.2308
Counting	-12.231
Singular	-12.2311
containsValue	-12.2313
Economy	-12.2315
▁EVENT	-12.2315
▁mTimeout	-12.2316
Rdf	-12.2316
series	-12.2316
signal	-12.2316
Desired	-12.2317
▁mAlpha	-12.2318
IStructured	-12.2318
createElement	-12.2319
setContext	-12.2319
SCRIPT	-12.2319
getProgram	-12.232
INTER	-12.2321
Descendants	-12.2322
trade	-12.2322
▁testMethod	-12.2323
ServerError	-12.2323
▁initialise	-12.2325
AuthToken	-12.2325
wire	-12.2326
ending	-12.2326
ForAccessibility	-12.2326
DT	-12.2327
-12	-12.2327
ELL	-12.2328
variables	-12.2329
measure	-12.2329
Distributed	-12.233
Semaphore	-12.233
ug	-12.233
detach	-12.2331
nParameterChange	-12.2331
ReadableDatabase	-12.2331
subtype	-12.2332
isHidden	-12.2333
▁getUn	-12.2334
assertion	-12.2334
("}");	-12.2334
▁textures	-12.2334
Px	-12.2334
▁displayed	-12.2338
mObserver	-12.2338
modid	-12.234
▁getAdditional	-12.234
Fl	-12.2342
ResourceLoader	-12.2343
DataAccess	-12.2345
leg	-12.2346
FAIL	-12.2347
ParTimeContainer	-12.2348
mobile	-12.2348
ipFile	-12.2349
setFocus	-12.235
mLast	-12.2351
▁solr	-12.2351
Deployable	-12.2352
ChooseLock	-12.2353
rid	-12.2353
writeEnd	-12.2353
checksum	-12.2354
acl	-12.2358
▁tiles	-12.2363
ResponseCode	-12.2364
Variants	-12.2366
Navigator	-12.2367
▁GattService	-12.2367
▁onCreateLoader	-12.2368
KeySet	-12.2368
Indication	-12.2369
Capable	-12.237
machine	-12.237
percent	-12.2372
▁Wallet	-12.2373
BufferedReader	-12.2373
PCM	-12.2374
▁routes	-12.2374
Gas	-12.2376
▁resultHandler	-12.2377
Handled	-12.2378
secondary	-12.2382
▁fontSize	-12.2383
article	-12.2383
▁responses	-12.2384
mNext	-12.2385
▁OncRpcException	-12.2385
VARIABLE	-12.2385
Sharing	-12.2386
▁associated	-12.2386
LocalDateTime	-12.2386
IG	-12.2387
Ds	-12.2387
preferred	-12.2388
ory	-12.2389
license	-12.2389
views	-12.2391
▁getVolume	-12.2392
[...]
